10010
1111111111100110
101001
1110
1111111111110000
1111111111110110
10
11001
1111111111111101
1111111111111110
1111111111111011
1111111111011001
1111111111100110
1010
1101
1111111111111100
1111111111110010
1111111111111011
1111111111000011
1001
101010
101
1111111111101011
100110
1110
1111111111111001
111000
10000
10100
10100
10010
1111111111000111
101
1111111111111000
1000
1111111111101000
1111111111010110
101
10011
1111111111110101
1111111111111010
1111111110111100
1111111110101011
1111111111111111
10011
1111111111111000
1111111111110101
110100
100101
110011
100110
1111111111011111
100001
1111111111011101
1011
1001
1111111111011000
1011010
10110
1111111111101110
1101
10011
1111111111010101
1111111101101110
1111111101000111
1111111101101100
1111111100111010
1111111001001111
1111110111010101
1111111001100110
1111111010111110
1111111101000000
1111111111101000
1111111111010101
10110
100100
1010101
1111111111001110
10111
1111111111101100
0
10000
1111111111110110
1110
1111111111010010
11
11111
1111111111110101
1111111110111000
1011
1111111111000001
1111111111110001
10110001
1111111100001110
1111111110011000
1111111001000111
1111110011100000
1111110000101010
1111101001001110
1111110001111111
1111110101011001
1111111110111000
101000010
101011110
1110100
1111111110001110
1111111101011000
1111111111101101
1111111111010100
1010
1111111111110110
1111111111010011
110100
100100
1110
101010
111100
101000010
111011001
101110011
1011011
11000111
10100101
1111111100110101
1111100100110010
1111010110000100
1111011011000000
1111100001111011
1111100110100100
1111101111000110
1111111110010001
1111111100010101
1111111011010011
1111111110010011
11011101
110000110
10000100
1111111111111010
1111111111111111
1111111111101110
10
1111111111111001
1010000
10110000
110011010
1010110011
1000010101
110000000
1111111100111101
1111111011110111
1111111000100111
100000011
1111110110111001
1111110100010111
1111110100100010
1111111010110111
1111110101111111
1111111010011100
100111101
10001011010
10001110100
111000001
111001011
101010000
11010000
11
1111111111100100
101111
1111111111110101
1111111111101000
1111111111010000
101001001
110101110
1111111100000011
110110001
10001110011
1101111100
111110000
1101100001
10111000001
11111011
1010001011
1111111101010110
10110110011
1110011000
10000000111
1111111000010010
1111110000001111
1111110110100101
1111111011001110
1111111101010111
1111111010011111
10011101
1111111111011000
110
0
1111111111011100
1100
1110
11011001
110011001
1111110111101010
110111011
1100000101
10100000110
10011100
1001100000
1100101010
10000001101
10011000111
11011110110
10000011010
1111101100001111
1111110001010011
1111110000110110
1111100111010111
1111100011001001
1111100011100110
1111101100101010
1111110000011000
1101101
1111111101010011
1111111111111110
111001
101011
1111111111100101
1111111110001100
1000101
1000011011
1111111111110001
1111110110011100
1111111001001011
101100010
10010100111
1111001000
11001100111
10011110110
1111110111111110
1111111110
1000100000
1111100101010010
1111101100101000
1111100000000101
1111110100000110
1111100000010010
1111011101111110
1111101101000101
1111110000011000
1111111001100000
1111111011010101
101011
1101011
10110
110
1001101
101010
10001010000
1010100011
1101000011
10111111001
1111000011
10101011010
11111011001
11001010011
1110111110
11000011000
1000
1111101011101110
1111110000001110
1111111000010100
1111110011100001
1111101011101011
1111100100110011
1111010110100000
1111100101100001
1111101000011010
1111110110110001
1111111110010100
100011100
11101001
110010
1111111111111000
1010000
11101010
1001110000
1000010111
100010010010
1010101100
10001100110
11001010011
10011111111
10110111001
1000001011
10110100000
1111101011000000
1111100100100000
1111111010111000
101110010
1101011
110100110
1111111110011101
1111010001010110
1111011000011100
1111110011101001
1111111110011110
100000001
110111001
10110100
1111111110110100
1111111111000000
111110
10110
10111000
1010100101
10100111
1111101110010111
100001
1111111010110111
1111110011100101
111001111
1111100011000010
1111110000001111
1111010011001011
1111011100000101
1111110010000100
1010010111
1111111110010110
1000100111
1111101101100111
1111101000101100
1111110101111010
100010
10001010010
111110110
111100101
1111111111110001
1111111111100011
1111111111110010
10011
1111111111010001
101001100
1011011100
101010
1111110000100101
1111110100011000
1111100110010000
1111010111010011
1111101011000001
1111101011111111
100101000
110101010
1111111010000110
1100100011
1010000001
11101010
10010111001
111111001
1111111111110010
101110000
1111111101100000
1111111111101110
1001001001
10001010
1111111111100111
1111111111110010
1111111111111001
100
10000
1111111010100110
1111101110101101
1111111000111100
1111110111111000
1111111001111000
1111101111001011
1111101110101001
1111111100011110
1111101111001010
10111000111
11001000011
1111110100010011
11011000
111111100
1111110111110111
1111110111000101
1010011101
1111110001101001
1111101001001001
1111111001101110
1111111110010000
1111111111111110
1111111110011111
1111111101010100
1111111111011101
1111111110111011
1111111111110011
1111111110101100
1111111001111101
1111011100010101
1111110110001001
1111111110100111
1111111011111100
111111100
1110111011
1111111101110110
1111111100000101
1110000011
101010100
11110111100
11101100010
11011
1111111001010011
1111100011010101
110100001
10100011
1111110001001110
100111100
100111101
1111111110000111
1111111110111101
1111111111111001
1111111111111010
10
1111111111110001
1111111010110000
1111111100110100
1111101110001111
1111110100000001
1111110110001001
1110000
1111111101011001
1101100001
1001101101
1111111001101001
1111101011110010
100011000
110101011
11101001100
11010001
1111111011110100
1111101010010011
1010110101
10010110000
1111111111010011
11001110
110100000
1111110111000001
1111111011011011
1111111111111110
1111111111011001
10111
111
1111111011100111
1111111100110111
1111110000111001
1111111000000000
1010111011
1000111
111110101
110111
1100100
1110001000
1111111101100100
1111110100101100
1111111010000010
1111100111011110
1111100010010110
1111111111110011
1101100
100110100
1111010011
1001000001
1110000000
111010101
1111110110001110
100110
1111111111001101
101011
1111111111111001
1111111111001000
1111111101111010
1111111001101001
1111111000001011
1111111000011011
1111111011001111
111010101
10111110
1001101
10001011001
101011001100
11111001110
1100110111
10101010
1111100011110001
1111110111100110
1111111000010100
1111110111111110
100101000
10010000001
1110010000
1000010011
1111111001100110
1111111001111101
1111111111010011
1111111111100011
1111111111110101
1111111111001011
1001001
101111
1111111100010111
1111110101000001
1111101111011100
1111110101011110
1111101
1111111000010100
1111111100000000
10000100110
1000001000
1111110110000100
1111110110011010
1111110100101010
1111100101011110
1111110001001010
1111111010000000
1111111010011100
1111111011000010
10000110010
10110011100
100010101
1111101111110100
1111111100001110
1111111101010111
1111111110010110
10110
1111111111100100
11010
1111111111010010
1111111001001010
1111110101111110
1111110001101010
1111110011010010
1111100100101100
1111101000001010
1111101101010010
1111101110101100
1111101011110101
1111000010101000
1111101010110001
1111100000100000
1111111111101111
1111110110000111
111111011
110100001
11001000
111001011
1100110110
1111111101111010
1111110100011100
1111111111111100
1111111110101100
100100
1111111111011111
1111111111110110
1111111111101101
1111111111010111
1111110110110111
1111110110110101
1111110110101011
1111101110110101
1111011111011011
1111011010010011
1111001110101110
1111010100011100
1111010000000101
1111000100111111
1111111100110100
1111111111111011
11101000011
10110100110
1101000010
10010011110
100001111
1111101
111000010
10101
1111111101001101
1011101
1111111111100000
1111111111011010
110
1000
101011
1111111111110011
1111111011001011
1111111011001110
1111111101000011
1111101101111111
1111010110111101
1111000110010101
1111010011111101
1111011111111101
1111111000100100
1111110111111011
1011011010
10101111111
101001010001
1111111001001010
1111111111101101
1111111100011011
100111100
1111111010111100
11011011
111111
1111111111001011
1111111111011010
1111111110110000
10100
0
1111111111110001
100100
1111
1111111110100110
1111111111100100
11100011
1111111100000001
1111101000101000
1111010111110010
1111011110101100
1111111100101011
1111111101000011
1111111101111111
101011110
1111111001111010
1111110000110111
1111110111010011
1111110111100110
1111011110011100
1111111001011111
1111101110110111
111110100
11110111
1111111111110011
1101001
1111111111100011
101100
100
1111111111101011
101000
10000010
1010100
1111111110110000
110011010
101110100
1111111000101010
1111111001000110
1111110111110101
1010000101
1111110110010011
101101010
11101011
1111110010100001
1111100010100001
1111110101100101
1111111000001100
1111110001101010
1111110111111011
1111101110100100
111111111
1111111110110110
10100000
10000
1111111111000010
100
1111111111011111
10101
1011010
10100001
10110101
101
110111111
1100111000
1011000000
11010011110
101010101111
100101110000
101011111
101011010
1011010010
1111111000111111
1111110110000110
1111111101000110
1111111110011011
1111111100101100
1011001101
1111111111001011
1111111110001001
10100
1111111110111011
1111111111111000
1111111111101011
1111111111110100
11100
100100
100
1111111110111101
1111011
100001110
101110100
1101010000
10010101111
11010011110
10110011100
1001000101
100101110
1111111111101010
1111111000101110
1101
11101000
1001010110
1010001000
100100010010
1011011100
1111111111101100
1111111100010011
1111111111110000
110111
111011
111
1111111111100001
1111111111100111
1111
0
1111111111111111
111000
1111111111011000
1111111111110110
1010001
10011010
10001111
1000001001
1100000011
101110101
1011000001
10100011111
1111001100
10011010111
10010011001
10001110011
10011111011
1101001111
100001001
10101
111000
1111111111100010
10111
1001001
101100
1111111111101010
1111111111010000
100101
101001
1111111111010010
110
1111111111101110
1011011
111010
1111111111010001
1111111111111101
1111111111011010
101111
1111111111101111
111101
1111111101111001
1111111110001110
1111111111100000
100110
100011100
1
1111111111110100
1111111111101101
100101
1111111110100001
1111111111110100
10010
111011
