1001
110011
11111
1100011
110101
100111
1111111111111110
1111111111100010
1111111111110101
1111111111110100
1111111111100110
1001110
10100
1111111111101110
1111111111111110
1111111111101100
1000011
1111111111110110
11100
1101
1011
1111111111000000
1111111111001110
1001
1111111111101111
10
111
11101
100
10110
1111111111100101
1010100
1111111111111100
1111111110111101
101101
1111111111011110
1111111111100101
1111111111111010
100
11111
10100
1111111111100101
1111111111100000
100100
11011
1111111111110001
1110
1111111111010100
1111111111100000
1111111111110011
110101
1111111111110010
1111111111110010
111
1010
11101
1111111111110100
1111111111000010
1001
1111111111001010
1111111111110000
10011
1011100
1000100
11000111
101001010
100000010
101001001
1000000100
110010011
1000111101
1000111101
11111010
100011000
101100010
10001000
101
111100
1000101
1111111111111001
1100011
1111111111101110
11100
1111111111001101
10
100000
1111111110011010
1111111111001011
1010
1111111111101111
110110
11011001
10000100
111011110
101000010
101011111
110111111
11100100
10110101111
11110010100
10110110010
10010110001
10011111010
1100110010
1000000000
101111000
11010100
100110
100011
10001
1111111111011011
100110
110100
1111111111101011
1111111111011011
10000
11100
1101
1111111100101100
11110111
1111110001
1001100101
101111111
1111111110000011
1101100
1111111001010011
1000010011
1111111001011000
100110101
1101000
1101111111
10111010110
11010000000
10011001011
100100011
10101111
100100001
1011110
1111111111010101
1111111111100101
1010
111
1111111111101000
1111111110101111
1111111001111001
1111111010001110
1111110011000011
1111111100110101
1111110011111110
1111111010110111
1111110011110000
1111111110100100
1111110110011010
1111101101101011
1111110111110011
1111110101110111
1111111101001000
1110000
1111110101110101
10010001000
10100000110
1111111100
101001100
1011111
111011001
10111100
1100111
1001011
11101
1111
1101011
1111111100101011
1111110110000100
1111110010010000
1111100100011100
1111111000100010
1111100011101111
1111111000011101
1111111110011101
111001011
1011001
100001110110
10101000101
100001011100
10001110001
101000
1111100110011110
1000101001
10010101101
1111110101111110
100010010
1011010001
111000000
1001100011
11110001
11001011
1111111111101000
1111111110000010
1111111111100101
1111111010110111
1111110010001000
1111110100111100
1111101011010111
10010
111111000
1111110010110010
10101010
100111011
1111110011111110
1111111101110010
1000000100
10100000111
1111111110101110
110001011
1111101001001011
1111110110111100
101001111
110101001
110001100
1010010101
1000000100
110110100
10011010
1111111111100011
11000
1111111010110000
1111111011100101
1011101
1111111011001101
1110011
1111111011101101
1111100101010111
1111011001001110
1111100001111111
1111011001011100
1111111010000111
1111010000010101
1111110000110100
1111111011111100
1000000
11011101101
1111110001010101
1111111110011001
1001111010
1111101111000111
1111111010011000
1111110100101000
1111111011101011
110111001
1000000010
10010110
1001000
11000
1111111001011100
1111111000010010
1111111100111101
1111111000111011
1111101110110011
1111101101111011
1111100111110010
1111110010011011
1111011110011011
1111111110110000
10101001
1111101101011001
1111101001111101
1111111111110101
1111110110101101
1111111001111010
1111101101101010
1010010
1111110111010110
1111111100101111
1111110101101010
1111111000100110
1111111001110011
1110101001
1000100101
110000100
1111111111101101
1111111111010111
1111111001111010
1111110110011111
1111110011111001
1111110011010010
1111110001000001
1111111111000100
111000
1111111011001111
1111101100000110
1111010101110010
1111011001101000
1111001110101111
1110111100010001
1111101110011010
1111110011110111
1111110110011101
1111101010110111
101
1111111000000011
1111110110010001
1111111100111001
1111110101100001
1001001110
10011110011
1000000011
11001110
1111111111011111
1111111111010111
1111111100011011
1111111000000000
1111101111101011
1111101110100010
111111111
1100000101
1111110110111010
1000011000
1111010111010010
1111100110110000
1110111111110001
1111011001011001
1110011000
100101100000
1110110111
110001001
1111101000110110
1111101101011010
1111011100111000
1111100001011100
1111101111001000
1110111011
10011101101
1011110100
101010000
1111111111100110
100
1111111111000101
1111111101011010
1111111001101101
1111110011000110
11011000
101011100
1111111010111011
1111101011000010
1111100101100101
1111011111001110
1111111000000010
1111111001000111
1111111011101001
1000011010010
1001100110111
10111000011
1111101101000000
1111101100111000
1111101101001010
1100000101
1111111011110101
10010111
1111111000110111
1111111000
1111111010101100
1111111101000101
1001101
1101
1111111111101101
1111111110110001
1111111011010100
1111111011101001
10000100101
1111110110001010
1111100101011101
1111111000111110
1111110110110110
1001101101
101011000
1010
111000011111
1010010000101
111010011010
111000111101
1001111001
1111110001011111
110111011
11011010100
1011101100
1110101011
101011110
1101101101
1111111101001001
1111111011000101
100011
100101
1111111111001110
1001
1111111100110000
1111111111010100
10000000100
1111110010111110
1011000011
10001010000
10010110000
1110111100
1111111100111011
1111010110
11000000110
101110100101
1001111101
11010010101
110001010
1000110101
11100110101
1111111110111010
10100000010
10101001111
100011011
1111111100000000
1111101110011010
1111111000111010
10100
101111
1111111111011100
1111111110111100
1111111101010110
10110100
1110000000
1111111101001001
10111110101
110100010
100110011111
11101101111
1011011011
101111001111
110011000111
10110100001
10000011011
1100001111
101001000100
10001000000
10100100100
1111111101100010
1111111100000010
1111110001011000
1111100101100101
1111100100110100
1111101111011011
1111111110111100
1111111101110010
1111111111110110
1001
1111111110110111
1111111111010001
111100111
10110101010
100011000001
11001101000
1111111110011101
1000001111
10010111110
1101101000
111001100010
110000100001
11000110111
100111011
1111110100010001
100100011
1100101011
1001000010
1111110010000101
1111110010011110
1111011001011101
1111101111111000
1111101101110100
1111101101010111
111100111
1111111110001110
100110
1111111111111011
1111111111101111
1111111111111111
1011110100
1111010111
1011100101
10000011010
11101110011
1011100101
1100000100
1000110100
1010011111
10101001010
10101011100
1111111100111011
10011100101
1101010010
1111111101111110
111010011
1001101100
1111110000101101
1111100110111010
1111110010101000
1111101001010100
1111101011010010
1111111100100011
1111111110000011
1111111111000110
100011
10000
1111111110111010
1011011001
1010101010
1111111111011100
10110000111
100011001101
10010101010
110011010
11010101111
10001010110
10011010100
11001101101
10100001
1111111110100100
1101100001
100101111
1001110011
10010100110
1111110110011011
1111110001001110
1111111000000000
1111110101101000
1111110111010001
1111111001100110
1111111110110011
1111111111011011
1111111111110100
1111111111101111
100001
100001000
1111111100100111
1111111001001001
10000001
1101010011
1111111111011111
1011000
10000011111
11100001100
11101010011
1111110010110010
1111111010000011
100000010
10100111100
100010001
1000100101
111010100
1111101010111101
1111111110101010
1111111010001010
1010100100
1111111101111000
1111111101110001
1111111110100111
1111111111011001
1111111111110101
10110
101010
1100110
1111111101010111
1111111110001001
101110101
1111110100111011
1111110101010100
1011001000
1110001001
1111101100011010
1111110011000001
1111101011111001
1111111011010000
1111101101111111
10000001101
1111111100100001
10110010
1111111101101100
101110010
1010001
1001011010
1011111000
1111010101
1000111001
1111111111111100
1111111111111001
1111111111100011
1111111111110010
1111111011110011
101000
1101011
1001000001
1010110
1111111001101010
1111111111011010
10011000
1111111010000011
1111101110111000
10011001
1111110111111001
1111111100110010
1111101110001000
1111110010100011
1111110110001010
1111111110011100
11100100
1111111111011011
1111111011011100
10101011
1111111011110100
110101100
1101010
101110
11111
1111111111011111
11111
1111111101011110
10010100
1011000
1111111111010010
1111100101111110
1111101111011000
1111111010000001
1111101111110100
1111111110011100
10000100001
11011011
1111111011010111
1111111101011110
1111010111111111
1111011110110111
1111110001000011
1111110101101011
1111110110010001
110101000
11101011
1111111101100010
10101010
11111110
1111111111000100
10011
1111111110111000
100000
101000
1111111111001100
11100000
1111111101001001
1111111001111110
1111110011000000
1111110111000001
10001000
1111110100010110
10101111
1111101011010011
1111110010110010
10110111
1110111
1111110100010111
1001011001
1111110110000000
1111110000000000
1111111000110011
1000100001
1100010
100001000
1000110100
11001111
1111111110111011
1111111111100101
1111111111011101
1
10111
1111111110011101
1111111111010111
1111110111010000
1111110100001010
1111101110101111
11011010
1111111110010010
10111001
10010101000
1100110111
11010101001
11101111101
1101001
1111110001000101
100110100
1111101101100000
1111110100101011
110111010
1111110010
1111111111010100
1111111110100100
110001011
1101111
1111111110101010
1111111111111101
10000
1111111111110111
1111111111011001
10011
110010
1111111100010001
11110010
1100001001
1110000001
100111111
1111111111000101
1000010000
1010000100
1111101100100011
10100010
1111111111111011
1111111101111111
10010010
110110100
1111111101111101
101110111
10010000100
111110100
1111111010000010
1100
1111111111000100
110
1111111111111000
1111111111111010
101011
1111111111110000
1111111111110010
1111111111111001
1001011001
1001111100
110100100
111011100
101100011
100011100
1110100
1111111000110001
1111111110001000
10011110011
11001111100
1111111000010010
1111111111111111
10011000001
10101110
1111111001110011
110111100
110000010
101111
11001
1111111111110001
1111111110111111
1111111111111001
1111111111100001
11111
1111111111111100
1111111111011110
1111111111011101
1111111111101111
1111111111110010
1111111111011011
100101
1011
1111111111100101
1111111011111011
111010100
1101101111
1111111110110110
1100000
1001010010
1010010000
11111100
1001001000
11010
100100111
1111011
10000110
1111111111111011
1111111111100111
1111111111100011
1111111111111101
1111111111111101
