11111
1011
11001
1111111111011111
110001
1001
1111111111001101
1111111111110101
1111111111101011
1111111111010110
1111111111111101
1111111111101110
1111111111010001
1000010
1111111111101110
1111111110101011
1111111111111011
1111111111110110
101001
1111111111101010
1111111111100111
1111111111010011
1111111111110101
1111111111110111
100110
1111111111011100
1111111111100101
101010
1111111110101100
1011
1111111111001101
10110
1111111111011011
1111111111111100
1100
100
1000101
1001
10101
1111111111100010
1111111111010110
10010
101100
1111111110111101
1111111010100111
1111111101101010
1010
101110
1100000
10010010
1101
10001
1111111111101100
111
1111111111110010
1111111111101000
1111111111110001
1111111111111001
10100
1111111111110010
1111111111100000
1111111111001010
1111111111111010
11011
11001001
100011101
100001011
101110010
110010101
1011101000
1101111101
10000110100
1000011100
110100101
101000100
100000101
10011001
100110010
10101101
10011011
1000001
11010
1111111111101001
1111111111101011
1111111111001111
1111111111111101
1111111111100001
1111111111101100
1111111111111001
1100000
100001010
10100000
1111111001111111
11110010
1111111011001011
1111111000100100
1111111011010001
111011001
11111001101
1100100100
10110111
1010001011
100001101010
11000100111
10101101000
10100010111
1001010111
100010000
111000
1111111110010011
1111111111001010
100100
10100
1110
1
1111111111010101
1111
1101001
1011001
1111111110110100
100110
1111111101110111
1111101110101101
1111101100011011
1111110000111001
1100011011
110001000
1111110011011101
1111110111111100
111100100
101011010
11111000
1111111100001101
1111111100100111
1111110100101000
1111111011000011
1111110100010010
1111111101100011
1111111111010010
1110
1111111111011011
100101
100111
1111111110011000
1111111101100000
11111
10110000
11100110
1111111010100111
1111110000001100
1111100001010100
1111010101001011
1111101110011101
1111111100101001
1110011111
1110010010
10110000
111101100
1111111110100001
1111111011001101
1111100011000010
1111110001010101
1111101111010010
1111111010010000
1111111011011111
1111111111101101
1111111111001101
1111111111110100
11000
10100
1101
1111111100110011
1111111010100011
10010100
1111111110010110
1111111101001000
1111111100000100
1111110011110001
1111100111010101
1111011111010101
1111110000000100
1111101111111000
1001
101101101010
1110011011
1111111100101100
100011011
1111100000111111
1111010000010111
1111100010111010
1111110010000000
1111110111011111
11000001
1111111110111010
1111111110110110
1111111110011110
1111111111100000
1
1111111111111100
1111111010000111
1111111010000111
1111111100011110
1111101110111111
1111111001011100
100010111
1111111001100111
1111100001011011
1111101101100110
1111110011000110
1111101111101000
11000011010
101010101011
10100110111
1011001001
1111111000101111
1111010100000011
1111100100001101
1111011101111101
1111110011100010
1111111010101110
110111100
10110101
10101011
1111111110100001
10101
1000
1111111111011100
1111111010110000
1111110110011101
1111110111101010
1111110111011110
1001100000
1100101010
1111111011001001
1111100111110011
1111011010110110
1111101111010011
1110110
11100100100
1010011110
1111110100101011
1111111011000110
1111100100100001
1111100000011010
1111100010001101
1111100111101101
1111110001000110
1011011
1000000011
1110001
1111111111001010
1111111111110111
11111
110
1111111111111000
1111111011000101
1111110001000101
1111101101111010
1000111
10001111101
110010011
1111111110011100
1111101100000110
1111011011100101
1111101100010000
1111101110011110
100101110011
11010001011
1000111000
1111111100100101
1111101111001101
1111101010111000
1111101100000011
1111111001001111
1111111100001001
10001110
1111111010100011
1111111010011100
1111111001010110
1111111101001011
110110
100
1111111110110001
1111110110100100
1111101011100100
1111101101000011
1111111100111100
1111111110001000
1111111101001101
1111111000011110
1111101000100000
1111001110100011
1111110011100100
1111111110001110
11100100011
11100011110
1111111001111111
1111101010010111
1111101001101111
1111100111111101
1111111010100101
111110110
1100110100
1111111001111011
1111101110111101
1111110111000011
1111111010101101
1111111111000011
1111111111101011
10011
1101
1111110111111111
1111101101010011
1111101101010001
1111101101111000
1111111001101100
1000100000
101001100
1111110101010111
1111011100011101
1111110110000001
1111111001111101
1000100110
1111110100100101
1111110101111000
1111100100000100
1111100100011101
1111101110110001
1111111001011000
1011010
100011110
1111110001100001
1111011101101110
1111101110110011
1111111000001110
110111
1111111111110100
1111111111111001
1111111111011101
1111111001000011
1111101101100010
1111101000000101
1111101001000101
101011010
1101111010
1100101
101111011
1111111010101111
1010010
1111111111010110
10011010
1111111100010100
1111111111010110
1111100110001110
1111011011101101
1111101011110000
101101111
1111111010110000
1111111011001001
1111110111111010
1111110011101001
1111110110100111
1111111011110010
11111
1010
1111111111110011
1111111111111001
1111111010000110
1111110000000100
1111110101111001
1111111010100100
1111111
1111110111111001
111010
1111110100100110
1111111010100010
0
1111110001001111
111000101
1010100010
10011011110
1111111000110010
1111110010101010
10010101010
1000001110
1111111011100100
1111111110010111
100100111
1111111011111100
11100101
1111111111101100
1100110
1111111111110111
1111111111011011
101
110010
1111111010011001
100100101
1111000100
1111101110
10100011111
1100101
1001011110
1111111011011111
1011111101
1111110011000101
1011011110
1111111111011101
11101001100
1111110011111101
1100100011
11011000
1111111100110101
1111111110110001
11010010111
1100011000
1111110001110111
1001000101
10001010
1100
11000
10101
11101
10011000
1111111110110101
1111111011000000
10010101000
10111011010
10000101100
10011011100
1111110111110000
100100101
1010110010
1111111111110000
1111111001101000
1111101100010011
1111111110111000
101101111
1111111001010000
1111111000100100
1111111011000110
111010101
1111110111
1111111100010100
1111110100100111
10100111
1010111
1111111111011100
1111111111001100
1111111111101010
10100
10101001
100010
110
11001001001
100111101110
11000111
1101010111
101011101
11001000010
101010110
1001111101
10010001
1111011110
1011110000
1111111010001101
1111110100010010
1111101110011111
1111110011001001
1111111011101100
1000
110110011
1010010
101111010
1100010
1111111111111111
10111
1111111111110100
11110
10001000
1000100010
1111111011001001
1111011110
11011010
1111101110100001
1111101011100000
110110101
1111111110001111
100010
1110110001
11011111100
1011001011
1111111110100010
1111101001100001
1111111111101100
1111110000110101
1111111101010010
10101101110
110100000
1111111101001111
110010111
1000000110
1111111111110000
11100
100110
1111111111110011
1110
1011101
110010000
100100
1111111110001001
1111110110100100
1111100101100010
1111110111011110
1111111000101111
1111101111011001
1110100101
11101101110
1111011100
1011011101
1111111101000111
1111110011010101
10100010101
11100111
10100010100
11001001010
1111111111101010
100100111
1111110010
111001110
11110101
11100110
1101
1110
11111
1111111110111101
100001111
1111111101100010
1111111010010111
1000110010
1111101011001100
1111111010001110
1111110011000010
100010111
11100011
11101010011
1001010111
1111111010111110
1111111101100010
1111111110010111
110000000
11000010
1010000101
111
1111110111111111
1110011111
10001010111
11010001
1100010
11100
1111111111101111
1010011
1111111111001111
1111111110100100
1111111101111000
1111111111000001
1111111001110010
1111111100100000
1111110001000001
1101100
1111111110001000
1111011010
100011001110
101110010
100001011001
1011011101
1100010101
1111011100
1100001110
1111111111100110
1111111110101110
1100111
1001
1011100110
1110010010
1111111110110101
1000100
1001
1111111111101100
100001
100010
1111111111010100
1111111001000100
1111110110100011
1111101111101100
1111101100110000
1110010100
110111111
101000101
1010111
1001101000
1111111010010101
10100011001
1111111110110000
1011000100
1111111010110100
110001101
1111110010000100
1111110001111010
101101
10110
100000010
1000101100
101000000
1111000
1111111111100010
1111111111101101
1111111111011011
1111111111110110
11
1111111100110010
1111111010011101
1111110001100100
1111110001111011
1111111111100011
1111111001001101
1000001111
1111110100100100
1111100010000100
1111100100100001
1111110001011011
1111111011000100
1111111100100011
1010101
11001011
1111111000110111
1100010
100000001
1111111001001101
1111111000000011
1111111011010110
1111111110010000
1111111111111111
10100
1111111111101011
10001
1111111111011001
1111111111011100
100
1111111110000011
1111111101100100
1111111000011101
1111110010101011
1111101110110110
1111101000001001
1111110011100001
101011001
1111110111110111
1111110001010111
1111110011110010
1111101111101011
1111110111010001
1111111011000111
1111111101110101
101100110
11101
1111111100000100
1111111001110000
1111111000110111
1111111100010110
101000
110
1111111110100111
10100
1111111111110000
1111111111101011
1111111111000110
1111111111001111
1110011
1111111
100001100
1011111001
1111111010100101
1111110100001011
1111101001000101
1111101001111011
1111111011101010
1111111100101101
1111110110111000
1111101101001010
1001000
10000011011
10111001
1111111110000011
1111111111111101
1100000
111111
1111111111100100
100
10011
1111111111011001
10010
1111111111011010
1111111111101111
0
1111111111100010
101010110
1000001100
100010110
110100100
1111110000001100
1111110111110100
1111101001111100
1111110000110100
1111110110101000
1111110101000100
1111100100011111
1111110100101100
1111110110000010
1111110001110110
1111111010000100
1111111010100000
1111111111000000
1111111111101100
11001
101001
1111111111111010
1010
11001
1111111111111101
100
100001
10010
0
1111111111111010
111011
10011000
1111111111110110
1111111101111110
11010011
1111111001101101
1111110101010110
1111110001100110
1111111000111001
1111111111001110
1111111100010000
1111111010001110
1111111011110111
1111111011001010
1111111011111011
1111111110011111
1111111111111011
111100
1111111111111110
1111111111011000
1111111111110100
111
1111111111111110
1000001
110
10111
1111111111001000
1111111110111010
1111111111000010
1111111110101101
1111111110111101
11001
1111111111111001
1111111110100110
1111111110110111
1111111111000001
100
1111111111110000
1111111111111100
1111111111001001
1000
10
1
11101
101101
111101
1111111111011010
1010000
10101
