100101
1111111111111100
1111111111110001
1111111111111110
10101
0
1111111111010000
10110
1100
10001
1111111111000010
100001
10011
110
111000
1111111111110101
10
1111111111110000
100010
100100
1111111111011111
101000
110111
111110
111100
1100
1111111111010101
1100
101001
1111111111111010
111
1111111111011000
101
1111111111100101
100100
1111111111111001
1111111111010111
1111111111101111
1111111111000011
11001
100101
101101
1111111111001110
1010
1111111111111100
1011
1011
1111111111111001
1111
1111111111010101
10001
101
110
10011
1111111110101001
11100
100000
101010
1111111111101000
1011
1111111111111001
1111111111110101
1111111110111101
100110
101100
11101011
10001101
1001110
11010100
101011011
111000011
101001111
1111111110000101
1110111
1010101
1010100
1100111
110000
11
1111111111010101
1111111111101100
1
1111111111101001
0
101001
111
0
110
101101
1111111111110000
1111111110111100
1100
10100001
11010000
10111110
101001011
101010010
1111111111111110
101111110
10111100
1111110011101011
1111110110000001
1111110010010101
1111101101001110
1111111000100001
1111111010110001
1111111111111001
111010
1111111110110100
110101
1111111111111011
1111111111010101
110100
1111111111111100
11011
1000101
1000101
111110101
1011101000
1010011110
10000010000
1011101100
1010101100
1000110111
1110000010
1000111100
1111111110010010
1111110110100111
10111011
1111111000101001
1111101010001110
1111101111101111
1111110010000101
1111111001110110
1111111101101111
1111111111011011
11000011
1111111111111100
1111111110101000
1111111111111110
11001
10
10010
1101111
1000100111
10011100100
10011101000
1110101100
1110001
1111111111011110
1111111110000100
1111111101000001
1100111101
1111110
1111111110000000
101001111
1111111000110100
1111100111110011
1111100001111001
1111100111001011
1111111100001001
1111110011110011
1111110000111010
1111110100100111
1111111110001000
1111111111001101
1011001
11101
1111111111101001
11111
1111111110110101
100101001
1010000110
1011001000
10001000110
10100001
1111111111111110
101101
1111111001011100
1111111100101011
1111101100010001
1111110101001100
1111101010100100
101010111
1000001000
1111111111010111
11100011
1111101111010000
1011001
1111110001001110
1111101001100001
1111111011100100
111101
10111000
100110
10100110
1111111111111000
111
1111111111011011
111
11101000
10001010
111011111
1111110101000110
1111111001010000
1111111110101101
1010010111
1111100111100011
1111111011010011
1111111000110110
1111100111011101
1111101110111111
1111101010110000
1111011111101110
1111101100010001
1111110011000010
1111110001110001
1111110001000001
1111110010110110
1111110100010010
1111111101010110
1111111110011111
1111111111101100
1111111111100010
1101
1111111111010010
1111111111111011
1111111101101000
10110110
101101110
1110110100
1000000011
1111111111
10000110011
1011110110
1001100010
1111110010010111
11101001
1111110001011010
1111101011100100
1111011100001000
1111101100101011
1111111001101001
110010000
100100010
1100111
1111111010001001
1111110100011010
11100110
1000011000
1111111111101000
1111111111000001
1111111111100100
100
11011
11001110
100000101
1100001
10110100010
1111011011
111001111
1010010011
1111111001011000
111001001
1111110111111111
10000111
1000001101
10011100010
10000111010
10101101110
11000111111
111000
1110011010
100000111011
10000101010
111010110
1001110100
1010010100
1111111111011110
1111111110111100
11001
1111111111100010
1111111110110100
101000101
1111111111001100
1111110110100000
10010111101
1111111111100111
10111110
1111001000
1001101111
100011101
100001000
11011110
111000001111
1000100011111
101111010111
110100010011
101001010100
100000101110
11001000010
100011101100
11101010011
11110111001
1101000110
1001000100
1111111111100011
1111111111101111
1111111111111000
1111111111100110
100100
11101010
1111111110111000
1111111100100010
110110
1000000001
1010100000
10101001000
1010111001
100110010
1111110101011000
1111111101011111
100110001000
111101010110
100011000010
1111001001
1000000100
1111000101
100110111010
100100001101
100100001010
10011000010
1000111100
1001110000
1011
1111
1110
1000000
0
1101100
1111111101101001
1111111010010100
1111110110111100
10110100
1111110110010000
10111
1111101010101001
1111110100001000
1111101111101100
1111111000000011
10010111110
101011101100
11000101110
1011101101
1010000000
10000111000
10010011000
101001001010
11101001000
11111010
1101110
100001111
1110101
10110
1111111111001111
11001
1111111111100101
1111111101111000
1111110111001010
1111110100000101
1111110110100001
10110
1111111010001010
1011100101
1111101111111001
1111111101010001
1111110110110001
100111111
10100010100
110010100101
100110000111
1111111001010101
11001110001
1111111100100011
1010101
100001001111
11000010110
1111111010000100
1111111011011001
1011111
1100011
1111111111101110
1111111111111101
1000011
1111111111000100
1111111110010010
1111111000000110
1111110110011101
1111111110101110
1111111010111000
1111110100001010
101110001
1111110011111100
1011111110
1111101010111011
11110100110
101101101010
10101100001
1101110110
1110010011
101011001
111000
1111110011010100
1110100011
10010100011
1111110010000011
1111110100110011
100000
101000
1000
110010
110
1111111111011100
11110
1111111110010001
1111111011011001
100
1111110101111100
1111111101110101
101100101
1111101101101000
10000000001
1111101101001111
11101101011
110011001111
100010110011
1111111101100001
1111111001011101
100000
101011011
1111110101101001
1111111111101101
10000101101
1111111000001101
1111111010001110
10011001
1101000
1111111111011001
1111111111100100
1111111111101001
110001
1111111111101010
111001
1111110101110110
1111111100111101
1111110101011110
10111101
101000001
1111111011011010
1111111110101100
1111110110101001
10111110001
101000101101
10010000100
10100010
1111111011001111
10110111111
1111111100010101
1111111100000010
1011000
1111110111011011
1011011
1111111110100010
100011101
10010101
0
1111111111011000
110000
1001010
1111111101101101
1111111100010011
1111111001110111
1111111111010011
1111111101010010
1111111010010111
1111111111101111
1111111000111110
1111111110100111
1011011011
100111110101
10111101001
10010111100
1110101011
1111111101001111
1111110001001111
1111101001111011
1111110110001000
11000010
1111110000010100
1111111010101000
1111111110000000
11011110
111100
1111111111100011
100110
1111111111111101
1101100
1111111101100100
1111110101001011
1111111101110100
100001000
1111010011
1010010000
1111110100000111
1001001110
10000110000
1001001111
100100110100
11110011100
1011101010
1111101100001011
1111111010000000
1111110111000100
1010
1111111010111101
1111111011111101
1111111010111110
11001000
1001000110
11010011
1101111
1001000
1000111
110
1111111101011011
1111111010100110
1111110001110100
1111110010010000
1111110100100111
10000011
1111010011
10000010
100001000
0
111011110
100010110010
1011100000
1100111110
1111111100111001
1110100
1111111000100000
10000110010
1111111000011011
1111110100100101
1111101111110010
100110111
101000111
10011100
1111111111100101
1000
1111111111110001
111110
1111111100001110
1111110111100010
1111111000010100
1111101101110000
1111111101100000
1111110010100000
1011
1111111101111101
11001101010
1111111111111110
1111110111101100
1111101101000111
1111110110110100
1111101111001010
10110001000
10100111011
1111111101010000
101010101
1111111011010111
1111111010011111
1111111000000001
1111111010001110
111110
1111111111100111
1111111111111001
11000
1111111111101101
1111111111011011
1111111111001000
1111111001011111
1111110101111101
1111111011110010
111001
1111111101101110
1111110001011100
1111110100111011
101011
1111110110001101
1111100011001010
1111011110011110
1111101001001001
1111100010101100
10100011
1111111111001010
1111111011110100
1111111011000110
1111110111110010
10100010
1111110011100110
1111110011001000
1111111000111001
1111111101100101
1111111111010100
1111111111011000
11010
1011
1111111110011110
1111111100111011
1110000
1111110110011001
1111111011100100
1100100001
1001101000
101000011
1111110111100101
1111100001110100
1111100110111010
1110101
1111110111111001
1111101101000111
11111011
1111111111100011
1111111100001011
1000010000
10010111011
1111110111011111
1111110101000000
1111110110100011
100000100
10010101
1111111111101110
100011
1111111111011010
1111111111110100
1111111111101111
100110
11100100
1111110111110111
1111110010111011
111010110
101111110
10000111
1111110001010011
1111101111000110
1011111111
101000110
1111111111010110
1111111001011110
1111110001100110
1111110000011010
10000101
11110000
1111111100000100
1111110110011100
1111110110111000
1111111101100100
10110111
11100100
1111111111110101
1111111111101111
1100
100001
1111111111111110
1111111111110100
10001011
1111111101011110
1111111101111000
1111111001100011
1111111000111101
1111101000111011
1111110010111000
1111111011111001
1111111011001010
1111111110110110
1111111100001111
1111111000100010
111101
101101011
1111100110101000
1111110010100110
1111110011011000
1111110110110110
1111111000111001
111011
1111111111101000
1110111
1111111111111111
10110
1111111111110110
1111111111110010
1111111110111000
1111111110110110
1111111111100101
11101101
110110011
101010110
1110011
1111111110110110
1111111110000010
1111111100111111
1111111000000101
1111110111101110
1111111011111100
1111111000100110
100111100
1111111011010011
1111111100100000
11111110
101011000
10100110
1111111011101110
1111111011111010
1111111110011011
1111111111101011
1111111111111100
0
1111111111001010
1111111111011000
1111111111101001
10000
11010
100101101
101001111
11011000
1111111101100010
1111111111111011
1
1111111100100010
1111111100100111
1111111011100010
1111110100101000
1111101110001101
1111110001010011
1111111011111001
1111111010101011
1111111001110001
10010011
10010010
1111111111110000
1111111111111011
111000
1111111111111111
1111111111001001
1111111111011101
1111111111010101
1111111111100000
0
1111111111111101
11101
11001
1111111111111101
1111111111101110
100010
1111111111011010
11111
1100
1000
110
110111
110011
1111111111001111
1
1111111111110111
101
1111111111110000
1111111111011111
1111111111011111
10000
1111111111011100
11
1111111111100011
1111111111100100
