1111111111110010
1111111111011100
1111111111110101
1111111111011110
100001
1011
1111111111110010
11011
1111111111111011
10001
1111111111111010
110101
110111
1111111111001001
10101
1111111111111101
1111111111110001
1111111111010100
1111111111100011
10100
1111111111100111
1111111111010110
1111111111000101
100101
1111111111111100
101100
10
1111111111111100
1111111111111000
1111111110111110
1111111111000010
1
10011
101001
1111111111001010
111010
1111111111001100
1100
1111111111110101
10111
1111111111100010
1001
1111111110111001
1111111101101000
1111111111110110
1111111111111000
1111111111111010
1111111111111101
1111111111011101
11001
1111111110110111
1111111111101001
11011
110011
1111111111001100
1111111111110111
1111111111011101
1111111111000010
10101
101110
1011
1111111111111111
111010
1111111111011010
1011011
100000000
11001101
10111101
10010011
1111111110111111
11
1111110110110110
1111111010111101
101110011
10111111
1111111111011110
10000010
11101010
110100
10011
1111111111110000
1111111111111001
1111111111110100
1111111111100101
1000001
1111
1111111111111110
10100
1111111111111011
1111111110100111
1111111101110010
1111111101001011
1111110100101011
1111110010010000
1111100101101100
1111111111011010
1111111111101100
1111111011011100
1111110011111111
1111101001111101
1111111100110000
1111111110100001
1111110100110010
1111111001101010
1111110001011011
101101001
1001010101
101110001
1111111111000011
1111111111011001
1111111111011100
100100
110111
1111111111110000
1111111111110011
1111111111110011
1111111111110110
1111111011111001
1111111001000110
1111101110101001
1111101111111101
1111101100010110
1111111100111010
1001000010
1111111011101100
1111101111111000
1111111100111001
1111111000010100
1111110100100010
1111111000110100
1111100100110010
1111111110100111
1111111010011111
1111101101000000
1111111000011001
1111111001110111
1111110001000011
1111111111001011
10111010
1011
1111111111110100
11010
1111111111011101
1111111001001000
1111111010100011
1111111001011100
1111110110110001
1111110111001000
1011000100
10001
1110110110
1111111110100000
1011011110
1111110111101110
100000100
1111110101110110
111000001
1111000111
1111101011100011
1010011011
1111010
1111110100001111
1111101110011110
1111110111111010
1111111011100110
100011111
1111110
100111
1111111111010010
1111111111010011
1011000
1111110110011101
1111110011001111
1111110010100000
1111111101101001
1111111111010010
1111101110110000
1111111001111110
101101111
100110000
1111111111110111
1111111011101111
1111001001
1111111110111000
1000101011
1111110001110110
1111101101010110
10011100100
100100001
1111111100000101
1111111101101101
0
1111110010011010
1111110111011100
1111110111001011
1111111101110111
100
11000
11010000
1111110011011001
1111111010010100
1111111001110111
10100010
1000101100
11011111
1111111111000101
1111111010101011
1101110001
1111110010000100
1101101
1111101010111001
1111110010001111
11100000
1111111011000101
1110110101
1010010110
1111111101011111
1111101111
1111101100001000
1111110110110101
1111110110010110
1111111010101011
1111110110111100
1111111111101010
1111111111111100
101001
11101011
1111111101111001
1010110010
1110001011
1110110101
10000010001
11010001
1111111010001011
1111111001011111
1111111110110011
1001001000
1001000
1111111110111010
11111011
11010000
10111111100
101101001
10011101011
1000010001
1111111001001011
1111011011110101
1111110000110010
1111011111100000
1111100001101001
1111111011010110
1111111111101000
110110
1111111111111001
101111111
110110000
10000110100
10011110000
1010011101
10001011
100011101
1110011110
11100101
1111110000010001
1111110001111000
1111111010100110
1000110010
1111111101101110
1111110110111100
1111111000111101
11000010011
10100101111
101000011101
10110110100
1111110010110101
1111111110000101
1111100101001001
1111100100011011
1111111101110101
1111111111110010
1111
111000
11111001
101111111
1101100000
110111101
1111111111000010
1000111011
111011000
1111101100111010
1101111010
1111110111100110
1111111111011010
1111100001111001
1111101100100011
111011110
1000
10100
10101001101
10111101
1110111
1110010100
1111111110101001
1001111010
1111110001110111
1111101011000100
1111111010010111
1111111111101010
10111
10111
1101001
11011110
11101010
10111111
1011010111
1001001000
1111111001011001
1111111110111110
1000000100
1111100110001000
1111110100110111
1111101011011001
1111111011000001
1111110000110011
1111111011110000
1111011100101111
1111101111100000
111010010
1111111010111001
110111000
11100111011
10111011011
101011010
1111111000011010
1111111100000011
1111111111001101
1111111111010001
1111111111101001
1111111110111011
1111111111011111
1000011000
1111101000
11101101100
1110010000
1000010000
10101100001
111110010
101100100
1111111111111110
1111111011010000
1111110001111110
1111110010000101
1111101000111001
10000101
1111101011001011
11110000000
1111011100
10011011100
101011000101
101101100011
11110011010
10101111
1111111110001000
111101
10011
100101
1101001
1111111101111010
1101100110
11110011101
101111000111
101100000110
100000010101
11110010010
100000011110
1111111010001111
1111100010000101
1111110111000001
1111101100011000
1111110110001001
1111011101011111
1111111110010001
10000010
110101100
1000001010
1001001001
10110100000
101000101100
11100011000
100010010
11011100
100100010
1111111111011011
1111111110100111
110000
1111111101110101
10100000000
100001010101
110111100101
111100011011
111111110000
110011011010
100010110100
1111110001111001
1111101101111110
1100110
1111111110011110
1111
1111111010110011
1111111100000011
1001011
1111111110001000
1111110101011000
1111110101110100
1101
111011000
10001110100
1000001001
10000001
100110
10000
1111111111110101
1111111111011000
101101100
1000010010
111000111
1100111000
100011101001
111101111101
1010101101100
1011100100011
1000001111011
1101010000
1111111101101110
1101000100
1001100100
100001101
111001000
110
1111101100111100
1111110001101011
1111111010111010
1111110100001010
1111110100111011
101010111
110011101
111000
1111111111101001
1111111111010100
1111111111101000
1111111101110111
1011111
1111111101010101
1111110101100010
1111101000000110
11000011110
10110100111
110111001111
1011011100110
1100110010011
1000100001101
100111111010
110000101011
1101101011
1111110000
1111110100011010
1111111101000110
1111110110111001
1111101010100100
1010000
1111110011011001
1111111000110111
1010001101
1101000010
1100100
1111111111111100
1000
10001
1011110
1111111100010110
1111110011101101
1111100110000101
1111101111010100
1011001001
1111111000010000
1000010011
110111110
100100011000
110100100111
101000011100
10101001000
10111011111
1111111100101110
1111111010100001
10111111011
1111110100111100
101011111
1011011111
1010000110
1111110010100100
1000011110
1100101011
1000100
0
1111111111100100
1111111111110100
1001100
1111110010111110
1111101111111100
1111101100011010
1111100110111010
1111100000010011
1111010011101011
1111011100001001
1111110010000001
1111110101110110
1001011100
10110110
111
10101110001
1101010111
1111110010011011
11000
1111111001100011
1111110100001010
1000110101
1000010110
100011
1111111111100010
1001101111
1101100
1111
1111111111111011
1111111111111110
1111111110101101
1111101100011010
11111010
1111100001011000
1111010111110001
1111011100110010
1111101100001011
1111111001010011
1111011011011110
1111011100001100
1111011011100111
1111110010010100
1111110011111010
11010101010
1001100010
1111110111000100
1000100010
1001111111
1111110111100001
1111111111011010
101010110
1111110011110111
1111110101011010
10111101
1011110
1010
1110
1111111111111101
1111111111101110
1111111010110000
1111010100
1111111001010011
1111101100010011
1111110111011011
1111100001111010
1111101010111011
1111101100110001
1000011111
1011010100
101001011
1111110100101111
10101101101
1010110101
10001100100
1110111111
10000011010
1111111001110101
1100110000
110101000
110001011
1111111101000010
11110010
1000010
1111111111010001
1000
11001
111111001
1010111011
10010010000
1011010000
10111110100
100111001
1111011100001000
110000100
1111100101111010
1111110010100100
10110110
1111111111001101
1001110010
1111111010010011
10011110101
1110111100
11100001
10010010011
1111101110011100
11000010
1011111100
1110111111
11100111
1110011
110101
100
1000
10
101110101
1001101100
11110101111
11011100110
11011001001
11000000111
1010000101
10001100111
101100001
1101101110
101011111
1111111101001000
1111111100011011
1111110110011110
100001010
10001101000
11101000101
10010101000
1111111100111011
1111111111111010
1100011000
10010010
1100111
10100101
10110
1111111111110001
0
1111111111100101
1000
1111110110010000
1111111001111100
1111111010111001
1011110000
1011010001
1000111010
1001001
1111110111000110
1111111010100100
1111111011001010
101111011
1111111011101111
1111111010111111
10001001101
1111111101011100
1111111111110111
1011110
1111111111110110
1101010000
10000000010
100111100
1111111100111110
11011
100110
1111111111101011
10000
10101
1111111111001010
1111111010001011
1111111010110011
1111110101100110
1111111011110101
1111111001100100
1100110
11011001000
11010001010
100100001
1000011
11001
1111111100100001
1101011010
1001010
1111111100111101
10010111000
10111010011
1001100
10011101001
1101011100
100101011
1110000
1011
1111111111101001
1001
1011
10
1
11000
10111
1111111110101011
1111111110010100
1111111010101010
1111110101100101
1101010001
10101010
11100
1111111000010101
1111111100011111
1111101111001110
1111111110000001
1111110110110101
1111111101111001
10010110100
100100101
1111111100000000
1001101
10001001
1011000
1000000
1111111111010011
101000
1
111011
100110
1000011
1001011
10000
1111111111111010
1111111111100011
1111111110100011
100110
1111111101111010
1111111010111011
1111111010010110
0
1111111001000111
1111111000110101
1111110100000111
10111
100110001
1000100111
100110010
11000110
101
1111111110111011
101010
1111111111001110
100100
1010
1111111111100000
1111111111000110
1111111111101010
1111111111111000
1111111111010110
1111111111101111
1011
1111111111110010
0
1010
1111111111111100
1110001
110100
0
11110
1110110
1111
1111111100111010
111111
10000100
10010100
1110011
110101
1111111111110011
1111111110111000
11001
100011
10100
1111111111011010
