1111111110111111
1111111111011010
1111111110111100
1111111111011100
1111111111111000
11010
100
11011
1111111110101111
1111111111110110
1111111111011111
100
10011
1111111111011011
1111111111101110
1000
11010
110011
1111111111101110
1111111111111000
100001
1111111111110101
1111111111111010
1001
1111111111101111
101010
1011
11101
100101
1001
1111111111010010
1111111111010011
1111111111100010
111001
1111111111010110
1001111
1111111111110110
1111111111110111
0
1111111110110011
1111111110110100
1111111111011000
1111111111101110
1110
1111111111000111
111011
11
100110
1111111111001110
0
100100
10
111
10111
1111111111111011
10010
1111111111000010
0
1111111111110000
1111111111011101
1111111111001101
1111111111101111
1111111111010010
10001
101010
10011110
1101000
10010000
10100001
101010111
101000101
11101100
1111111111001010
1011001
10010000
111100
1111001
101000
1111111111111000
1111111111101101
1111111111101010
101001
110
1111111111100101
111010
11011
1111111111010111
1111111111101011
10100
0
110110
10001001
110010110
110100110
101011111
101001001
11001100
1000000000
1101000000
1100110000
1011110001
1100100000
1010110000
111110001
101100111
1000011000
111111101
1101110
10010
1111111110001011
1111111111001001
1111111111010110
1000
1111111111010101
1111111111101011
1111111111000000
10011
100010
10101111
100111000
1000111001
1010110110
101110010
1111101111100101
1111110000011110
1111111000100110
10010000110
1001010111
10010100
1111110011111100
1111110101010000
1011001111
10110010011
1001010011
1111111100101100
1111111011110011
1111110110000111
1111111110011101
1010
1111111111011110
11111
11110
1111111111110011
1111111111100001
1111111101101001
1111111101100110
1011000
101001001
111000011
1101101100
10000011010
1111111110100110
1111111110000001
1111100010
10110110111
11011111011
1101101000
1111111110010001
110110111
10010101100
10010010111
111000011
1111111010111101
1111111100011101
1000
10011000
1111111111010011
1111111111001010
1100
1111111111010001
1111111101000110
1111111111110110
1111111100000001
1111111101011100
10101010
100010001
110011111
11001000100
1000101
100110
1111111111010110
1111111000010111
1111111111101000
1100010010
110110101
11111110
1111111010101110
1111110001110001
1111111110101011
1111011100110100
1111100101000000
1111110111101001
1111110100001110
11111110
1111111010001001
1111111111001100
1111111111011010
1111111111011100
1111111101100111
1111111110001100
10001001
110110100
1111111100100001
1111110101101011
1011110
1111111001100000
1111100011100100
1111101011111000
1111100110111010
1111110110010000
111100100
1111111100000101
1111111011110101
1111111001010001
1111110011111011
1111101100101011
1111111000110101
1111110011100111
1111100010111100
1111101110101011
1111101000011111
1111111000101111
1111111100000001
1111111111111000
10
1111111111001110
1111111111010001
1111111110010100
1010001110
111010010
1111111110000011
1111111110010101
1111111101110001
1111111000000100
1111111111101011
1111111100100010
1111010010001010
1000001
1111101111111010
1111011010101100
1111011011110111
1111111011001110
1111110111001110
1111111111100111
1111101000100010
1111110101011011
1111110110100011
1111110011000110
1111101100110010
1111111010000011
1111111101001100
1111111111110101
1111111111011000
1111111111001010
1111111110101101
100001
1000110010
1110101
11110111
1010000001
1100100110
1001001
1011
1111111000111110
1111111101111111
1111111111110101
1111110001000111
1111100001111111
1111010100000110
1111010111010000
1111001111100101
1111110100101011
1111101110101111
1111111110111010
10101000
1111101
1111110001101110
1111110011101001
1111111101111000
1111111101100001
1111111111111111
1111111111001000
1111111110111100
1111101
1100011
1111111110000001
1111111110001110
10100
1111111101011101
100110100
101001100
1111111111010100
111011101
110001011
1111111111110000
1111111111110001
1111100110011111
1111011110000110
1111010100000100
10001
1111100111111100
110000
11100101
1111111100110110
1111111101100011
1111110010111111
1111111010111100
1111111110011100
110
1111111111111100
1111111110001011
1111101
10011010
101100001
1111111101110111
1111111000101110
100001000
101001100
1011100000
1111111100101011
1110011100
1101111010
101000011001
101001010100
101100101101
100101001100
11000100001
11100011111
11110
1111111101000111
1000101100
10010101010
1100110101
1111111100110101
1111111001010011
1111111111110011
1111111111110000
1111111111110001
1111111110110010
100110111
11001001
101101000
111
111000
1000010
1111110100100011
1111110010101100
1000100100
1111110100010100
1111101001000010
1001010001
10001110101
110001011000
100011010010
11100001101
10100101100
10111111
1000000011
1111111010000111
110101010
1110101001
100001011
1111111111101011
10
1111111111110010
1111111111010000
1111111110110100
100000001
101101111
1110110
1111111111101101
1111110000010100
1111110111101111
1111111010100010
1111111000011001
1100100001
1111111110001011
1111111001101100
1001010011
10111100011
1101001010
10011000010
11011101000
1101011110
1100000011
1011010
1111110101000111
1111111000100110
1100101
100001001
10000111
10110010
1001
1111111111111010
1111111111001010
11011000
11010001
1111110100010010
1111110001110011
1111111000011111
1111110011110100
1111101000101001
111000111
10001100101
10001111111
10100101111
1101011101
1111111110111111
100110010
10001111000
11110000001
101010011011
101101110
1111101111010100
1111110000010111
1111101100000110
1111110101001001
1001110100
10100011
1110
1111111111001000
1111111111001101
1111111110110110
11111001
1111111101011001
1111110110000101
1111111110110100
1111011101110111
1111100111001100
1111111010001000
1101001000
11000001111
111101011
11110011100
11101000010
101000
1010010
11010001110
1101000111
10101010100
10111100100
1111111110100110
100011010
1111101011000000
1111111101111001
10001101001
111001010
1111111111111000
110
1111111110101101
100110
10001001
1111111111010011
110110
1001010000
1111100010010101
1111101011000000
11100110
10011101111
101001100001
11001100010
11011000010
11001100111
11111110101
10110001110
11001100000
11110001100
1111111111111101
1111110010
1111111111101111
1001100011
1111111100011010
1110111011
10101101101
111100011
1111111111101100
11110
1111111111100011
11010000
1111111110001001
1111111000111100
1111110011001001
101100100
1111101111001110
1111101001110010
1111110010101100
10011101
100011110111
100100011100
1111101000
1111110010100001
1111111110010100
100010011
100101111
10110100
10001101
1111111010110001
10101011100
1010101010
1111111000010011
1011101101
1100111010
1111101
1100100
1111111111110001
1000
10000000
110111010
1111111010001011
1010001111
1111111111000100
1111110110111100
1111110111100100
1111110101100001
11010010111
100110000000
10111000001
1000111100
1111101111100011
1010010
101100
1101100
1001110000
1111111101111011
1111111101000000
1111000011
10010100
1111111100011111
10010010011
1010001100
110010110
100000100
1111111111011011
1111111111101001
1010011
1010010000
1111111100110000
1111111010111110
10111
1111111010010111
1111110010000101
1111111100110001
1111111010000111
10010110001
1111111110101110
1101000101
10001010101
10111111110
101001100
1111111100000000
1111110111010001
1001101
10011001
1110101010
1111110111011000
1011110110
1010011010
110111101
11000
1111111111110100
1111111111110100
110
11100010
1100011010
1000011100
1111110101110010
1000001111
111001011
1111111011111010
1111110101100010
11001
1111111100101001
1111110001000111
1111111011100011
11001110101
100010000
1100100110
1011011111
1011011100
10001110001
1100010011
101100001
10001110
1000011001
1100001110
100111011
1111111111111110
10111
1111111111100111
10001
101101110
1010001110
1101010011
1111110101000010
1000011101
1000010000
1111101011110001
1111110100001101
1111101001011100
1111110001110111
1111111011001010
100010011
11001111010
110111010
100011110011
10101000110
10010111000
10011000100
1111110110011000
1111111111011001
1001111101
111110111
1001001000
1111111111110100
1111111111111111
111
1111111111101011
101001
1111111111110010
100111011
11000010011
1001010011
1100001
1111111111011001
1111110001010111
1111101110010000
1111110010100100
11001010
10100000
1111111100010001
1111110111111100
1011111
110000000
10101000
100111111
1110010110
10000101
1111111000100000
1111111011111011
1011101
11000111
11000
1111111111010111
1111111111011001
100000
0
101110
1111111111001111
1000001101
1
1111111101111001
100010101
10101101
1111111000111010
1111111000100110
1111101101101110
1111110011101011
110011110
1111110110011011
111010101
1111111010111011
1011001101
10001011001
110101100
1111110101000001
1111110101011010
10010110
111000101
1111111111111000
1000000
1111111111010000
100110
1111111111001011
1001011
110001
1111111110001111
111111
1111111100100101
1000000001
10010101101
11000010001
11000000011
1001100000
1101010001
1111111111000110
1100000011
1000100000
1111110011000001
1111111010000101
1111111011111010
1111110111001100
1111111000110110
1111110110111111
1111111111000110
11100001
111010111
1111111111001100
1011000
10001
1111111111101010
100
1011
1001
1111111100011010
1111111110001101
1110101
1100110000
10001110101
1111111000
1101000110
101110101
1111111000000010
1111101001011000
1111101000001100
1111110100001110
1111110110110111
10110110
1111111111111000
1111111110101100
1111111111100000
100010110
100001111
1111111110111111
1110101
1111111110110001
1111111111000111
1111111110110101
111000
1111111111010101
1111111111111110
1111111111111000
1111111111100101
1001110
100101100
111100101
100001101
1111111101111100
10110010
10110101
1111110111101001
1111110011110010
1111110111101101
1111111101100101
110101111
111111000
11011111
1111111010111011
1111110101110011
1111111111111100
100100011
1111111111100010
1111111111111101
1111111111011000
1000100
100
111001
1111111111111101
1111111111100000
1111111111101110
1111111111110110
11
101101
10
1111111111000011
1111111110101100
1111111110111100
1111111111110001
1111111110110000
1111111111110101
1111111110010011
1111111111110011
10111000
100001
1111111111011110
11010110
1101110
1011110
10011000
1000110
1111111111101101
1111111111111101
1101
1111111111110010
1111111111000111
