1111111111001001
1101
1111111111111010
1110
110
1111111111111101
1111111111100100
10100
11
1111111110110011
1111111110110110
1111111111101110
110111
1111111111001011
1111111111111101
1110
1111111111111010
1111111111101111
110000
1111111111100110
1111111111110000
1111111111010001
10
1111111111101011
1101
1111111111010010
1111111111111101
1111111111001100
111100
1111
1111111111100100
1111111111111011
1111111111110110
11001
1111111111101010
1111111111010110
1111111110100101
1111111111100101
110000
1111111111110100
101001
111
1101101
11011110
11010110
1111111110111001
1111111111101101
1111111110111010
1111111110010000
1111111111001000
1111111111110000
1111111111111110
1000
1111111111011111
1111111111101011
10001
101101
1111
10000
1111111111111110
101110
11
100001
1111111111111010
1010
11110011
10011001
1111111110010001
1110010
101111100
1010001110
1100010101
1100111011
1111111110010110
1111111001110011
1111110111111111
1111111010001010
1111111100100011
1111111110100111
1111111111100110
1111111111100010
1111111111110011
1111111111101111
1000000
1111111111001001
1111111111101101
10011
1111111111110011
1111111111011011
101110
1000101
110011
101010001
1000101110
10000100110
10010010101
10100100000
1100100001
10000010010
10001101000
100000000010
100011111010
110001001
1111111000100101
100100010
1111101011101110
1111110011100100
1111111000000101
1111111011110110
1111111111110111
1111111111100001
1110
1111111111101001
10
100101
11101
1111111110111000
1110101
100100101
101110110
11001000111
11100010000
11010000110
1000100000
1111000110
10001001111
1111000000
1010000100
11010001101
10000100110
1000101100
100100010
10010111010
1111111110000000
1111101001100001
1111011110101110
1111110100000010
1111111110000011
111
1111111111100111
1111111111010000
1111111111001001
100101
111100
1111111111010111
1111111100100100
101011
1010110010
1101100110
1010000010
11110010111
10100000101
11011110000
1110101000
1001000000
1111111110100010
1110011010
1101010110
11110100
100100100
1100011011
11011111
1111110001011000
1111100101111101
1111110101000011
1111111100110010
1111111111001001
1111111111001100
1111111111110110
11000
10111
110001
11110101
1111110011100010
1111110101010000
10010111
1111110101010001
1111111001111001
10010001110
11000111001
10101010110
101010010001
10011010111
100110100
1111101010111110
1110111
10010110011
1111111111111011
1010
1111111001001111
1001110
1111101100011001
1111111011000100
1111111101001101
1111111111100010
1111111110110001
1111111111100110
1010000
1111111111110111
10011010
1010001110
11100010
1011101
1100111
1111101000101010
1111101101100010
1111111111010100
100001000111
10110001100
100110100
10100000111
101010101
1111111001101011
1111111010100110
1110101111
1111011001
1111110111111101
1111111101000010
1111111011000011
1111111100111101
1111111010011001
1111111101110101
1111111110100011
101100
101
1010111
1111111111111111
101101011
1111000011
10001101
1111110110001110
1111111100000010
1111111110110101
1111111111111010
10100110011
1111111111011010
1111111111000100
1111101011111110
1111101001001101
1111111101100101
10100000010
1110011001
1111111011100000
1111111001
1111111110110100
1001001011
1111110101110001
1111111000100001
1111110000001101
1111111100001110
111011
1000
1
1101010
11101011
1001001
100110000
1111110010001001
1111100110111011
1111101100010110
1111101011010011
1111011001000001
1111000110111000
1110110001100110
1110110010101101
1111000001110011
1111100101111011
110111110
1101110011
1010100010
10111001110
1011111001
100001110
1111111011110110
1111111101001110
1111111100101010
1111101111001110
1111111111000101
1111111111011001
1111111111100110
1111111111101001
111100
100100000
1111111101011110
1111100110000010
1111001101110011
1111000101010010
1110110010000010
1110011100011111
1110010000111011
1110011001110001
1111000101110000
1111010100110101
1111100101100010
1110011
1111110001001001
11111001000
11111101100
100111
1111111011111111
1010001100
1111111111000000
1111110100110111
1111101101011000
1111100011000110
1111111010101111
1110
0
1111111111001001
1111111111110010
1000101100
1111111100011001
1111100110110100
1111000101110010
1110111110111111
1111000001101100
1111000011000011
1111001011010011
1111100110011100
110011100
10001011011
1111111100100001
10100010101
1111111111111011
1111110101010111
10011101010
10010111
1001111110
1111111011110001
1111110110100001
1111111110010101
1111111011111010
1111110100111100
1111111101101110
1011
1111111111100101
111010
1111111111101010
1000100001
111
1111110000111110
1111011100110111
1111010010001010
1111110001110111
10010110110
11011101011
101011011110
11010001010
10011011010
1011110010
11001100010
1111111001101000
1111111111000000
1111111101011001
1111111110000010
1000000010
1111111001001000
1111110101001101
1001101
1111110011001110
1111111001110101
11001000
100110
11000
11110
1111111111110010
110010101
1110011011
1111111100111001
1111111111111100
1000011101
10010011001
100010000010
1010111101
101011101011
11111010
1101
10011101100
100001111
1111111011001111
1010001011
1011101110
1011100
1011100001
11111101
1111111111100011
1111101110001100
1111110011100011
1111110011000110
11010000
1111111111111101
1111111111111110
100100
1111111111110101
1111100
10010011000
1100011001
10011001001
110001100000
100010101011
10100111100
1100101011
1011001000
1111111100011101
1111110010011011
1000011
1011111100
100010010
101001000
1111100
1111111101011000
1111110011101110
1111111
1010001110
1111101010001101
1111101110001011
1111111000000010
11100111
10001100
1111111111000010
1001
1010101
1001111
110010110
10011101110
10100111010
1101100110
1111111100100100
1111100011011101
1111111011110000
1111100000000011
1111111001011100
1111101010110001
100
1111111011000011
10011101
11001111101
1111010100000011
1111110001010100
1111110010000010
1111101011011110
1111101100101010
1111011110111011
1111111010100101
1111111111011001
10110000
10001101
1101
101011
1111111111011011
11010110
100001001
100100010
10101101
1111111111101001
1000001110
1111111001000101
1111111100001101
1111111101000011
1111110000001111
1111111010111110
1111111000100111
10101110110
1111110011010110
1111111001111101
11110001
1111111110000111
100000010
1111101010100011
1111111100101001
1111101110001010
1111
1111111100111011
110101110
1000011001
10111
1111111111110011
100010
100101100
110001000
1111110100100111
100111000
1100110011
1111111001110100
1010000
1111100101101110
1111110110011010
1111110010010101
1111110001111011
1111111011100010
101100100
1111111101011110
1111101011000101
1111110001101101
1111110100000011
1111111110000000
1111111010100001
1111111100100000
1110001101
101001
1111110111101010
1011010011
11101100
10011011
1111111111111110
101111
10100001
1101011110
1111110110101100
1110000110
110011101
1111111100010011
110000100
1000100110
10010110
1111111101101101
1111101111100011
1111101111001000
1111110010100100
101000100
100111000
10001101100
1000101011
1010110001
1010110110
10010010110
11001101011
1111111110001001
111000110
1111101101
1000110100
100010101
1111111111001010
100111
1111111000010111
1000100111
1111111001000001
1111111000111001
1111111100100101
101010
1111100111100101
1111111101001001
1111110110111001
1111110001000000
1111111100001011
10001111011
1111111011001111
1000001101
1000101110
1111011111
110100101
1101011101
10001010100
11010111011
1100011010
1111111100100110
1001000000
100111101
11111
1111
111
101110
1111111001001000
1111111111110010
11010010
1111101111100010
1111110111010110
1111110001010100
1111111110101001
1111111011111100
1111110001100110
1101101101
110001010
101001000
1111000
1111111111011100
10100100
1111111100011000
10000011100
10010110011
101000001
101111011
111000111
100000010
1100101100
10000101
1111111111101011
11
1111111111001101
110110
11101101
1101
1111111111000111
1111110110001100
1111110101001110
110011001
1111110111000111
1111101101101010
1111111110011100
1111101010000001
1111110010111011
1111111011001001
100110
1111110101011110
1100011101
101011110
1111110111101111
1101100101
1111111110000000
1111110010010100
1110011010
11010110100
10011101010
111011101
101011
1111111111100011
0
1111111111111001
1011111
111011010
1011010010
101110101
1111000110
1100001101
1111111110101101
1111110100111100
1111110101010010
1111101001100001
10010110
100110110
1111110111111100
1001100000
1111110101011000
111110010
1111110110000101
110
1101111011
110110101
101010111
11101000
11111011
110111
11011
11010
111
10011
1001100
1000001011
1000111101
1010110
1111101110011001
1111111000111100
1111101111110110
11110000
1111111011000010
1111101111111010
1111101100011110
11110011
1111110101110011
1111111010000001
1111100100111101
1111111010001001
1111110111101110
1111111001011011
1111110101101010
1111110111101000
1111111101101100
100110000
10010100
1001011
101
100100
1111111111100001
111
1111111111111110
100000100
1000010001
11010
1111111110011111
1111111101101110
1111111100111111
1001010001
1101000011
1111111110100111
1111111100001100
1111011101
10111010001
1111111011100101
10001110
1111001101
1011111001
1111111011110110
1111111111110111
110001010
101
11101
1110100
101000
1011
1111
100010
1011
111
1111111111111101
11001100
100100101
11101000
1100011
1110110001
11000101110
11001011001
1101000000
1001001000
1111011011
10000
1111110010011100
1011010
1011011000
1010110010
1011000001
111101
1111110110011100
1111111011010011
1111111111001101
100110
1111111111111011
10010
1001001
1111111110100110
1111111110111111
101000
1111111111111000
1111111111111111
1111111111010011
1111111101000101
1111111011111110
11010110
111100010
1110000001
101101101
111011100
1111000110
1111111110110001
1111111110010101
1100100
11000101
1111111110111100
1111111111101001
1111111101101010
1111111011101110
1111111111101010
1111111111100111
10101
1111111111011011
1111111111110010
1111111111111101
1011
111000
1111111111111100
1111111111001110
10001
1111111111111010
1111111111011011
1001101
111
101110
1111111101101010
1111111101100111
1111111111110000
1111111111111111
1111111111101110
1111111111000011
1110101
1111111111011000
1111111111010001
10010
1111111111100110
1111111111011100
0
1111111111011111
110
1111111111100100
1111111111011011
1111111111001000
