101100
10010
101
10101
1111111111100010
1111111111111110
1111111111111110
1111111111111010
1111111111010101
101111
1111111111101000
1011101
1111111111110010
1010
110010
10110
11010
1111111111101110
111010
11010
0
1111111111101001
1111111111010001
1000
11
10011
1111111111100111
1111111111100010
1111111111010011
1011
10011
1001000
1111111111100001
1111111111111100
100
1111111111111101
1111111111100110
1111111111101001
10010
1111111111110100
1111111111000010
1110
1111111111111111
1111111111011011
1111111111110010
10111
1110
100111
10100
111111
111010
1111
111001
10
1111111111011111
1111111111110100
0
101
101
1111111111100100
1111111111011010
11101
1101001
110101
11001
1111111101011111
1111111111000000
1111111110010011
1111111100100000
1111111100010010
1011001
1000110001
1000111110
100100001
101001001
110111
1101111
110101
10110
1111111111110011
1111111111101001
1111111111100110
1111111111100111
1111111111011001
1111111111110011
10110
101111
1111111111100101
101110
1111111111101001
100000
1111111110011010
1111111100110111
1111111000100101
1111110000111101
1111101011111000
1111001
1000001011
1111011001
1010100000
1000011010
11100011
1100011
1001
1101000
1111111010110101
1111111001000100
1111111010000100
1111111111110101
1111111111011100
1111111111100100
1111111111101011
1
10011
1111111111100011
10101
101000
101000101
100010011
11011101
110100000
1111111110101010
1111111000110010
1101100
110100011
1011101
1111111110000110
10101100101
1111110010010111
1111100111110011
1111110100111001
1111110111010111
1111110110011001
1011111110
11110011
1111111111011011
10001000
11100011
1001110
1111111111111000
1001
1111111111100111
10110
10100001
1000110101
10110001111
11000011100
1000101
1111110110011010
1111111111010111
110110001
101111110
1111111001110011
10001011
110
1001000101
100110
1111111110001001
1111101111110000
1011100
10011111
1111110101111001
1111111111100011
1011111100
1111111111011001
110010
1111111100011100
1111111111111001
111000
1111111111011110
1000001
100100100
1100110000
1101100101
111100101
1001010
1000011010
10100001100
10101001
1111110111010001
1111111001111111
1000100011
1111110100111001
1111111011100110
1110100110
10001011011
1111000001
111010
11001101
111000011
1111111001001100
1001110001
1011010011
1000010101
10001100
1
1010
1111111111101111
1111111111110011
1000
110001100
1010010101
1101010101
100011010
101000110
1111111000111110
1000111000
1110010011
1111111101110000
1111110110101000
1011110101
11101111
1111111100100010
1111110111110110
111010001
100100011
1100100010
110001100
1100000011
1000010111
1100101010
10000101001
101010111
110001
1111111111001110
1000
10000010
1111111110100001
1111111101100011
1010010
11011111
1111111100101000
1111111000001111
1000100100
1010000001
100100001
1001110001
110101000
1111111100011100
1111111010100011
1111111001011100
111110101
1111110010101011
1111111110011101
1111110100110101
111111011
100000110
10000110111
11100011001
11110101001
110110011
10111
1111
1111111111011001
1111111101101111
11000101
1011111011
1111110110000101
1101000010
10110101
111010010
1101011
1111111110011000
1111101110010011
10011001111
11000001
110000
10001101
1111101011100000
1111111100111001
1111110110001111
1111110101111100
1111111000100100
1111000010
1100010000
1111111001011100
11000100001
11001001000
11000011
1110010
1000101
11000
1111111111111010
1001110011
110001010
1111110011011100
1111111110100101
1111110110000110
10010101010
1111101111100011
1111111100111101
1111111100101101
10000011101
1111110011101111
1111110100111011
1111110011110100
1111101111100110
1111111010001101
1111110011111101
1111110010001001
1111111111100000
1111111010011011
1111101111111110
1111110000111111
100001110
1100110110
101000000
100011
1111111111110100
1111111111110000
10110
100010000
100010111
1111111000000010
1111110010100000
1111110010101000
1111110011111101
1111100111110000
1111110001101010
1111111010011001
1111111110001000
1001110101
1111111011101010
1111100001111010
1111101101101011
1111110100111111
1111101100000101
1111110000000011
1111110011100001
1111101011010001
1111100101001101
1111101010010110
1111110010010011
110110101
100100000
1
1111111111110010
1111111111101110
11101
1111111100011110
1101001
1111111110010001
1111110001111101
1111111001001000
1010010100
100001111
1111110011010011
100000101
11000011
10100100001
11010001
1111111010101101
1111110101001010
1111110101100011
100000111
1111001010000010
1111110101001000
1111111000010101
1111101100010001
1111100010001100
1111101001110111
1111111010111001
1111111111100111
1111111111110111
0
1111111111101101
1111111110111010
1111111111010010
10011010
1011100011
1111111100001001
1111111110100001
1111111110100010
1111110110001100
1111110111
10011111110
110110101
10011111000
11101001001
1111111101101001
1000110110
1111110100100101
1111111111100000
1111100100111100
11000010
1111111100000111
1111101110001011
1111101110100110
1111101101001011
1111111000100001
1111111111101101
1111111110110111
1111111111010010
1110011
11110
1111111111000000
1111111011101010
1111111011010000
1011101
1111111111010000
1100000111
10001110110
10100001
1111111011101101
1110101100
100101
111000010
101001011
1111111110101001
1111110000110000
1111111011010000
1111111101011101
1111011
1111111010101000
1111111101011011
1111110101011000
1111110000111100
1111110100111000
1111111100111000
1111111111101110
0
11011111
10110000
1111111100000000
1111110011000001
1111100101010011
1111101011110000
1111101100101101
11101100
1111111011100111
11000000100
1110111000
100010110011
10100010100
10010010
110100
1111111100100000
1111110011100100
1111111101110100
101011
1000111110
1100100111
100100101
1111111100010010
1111110101001100
1111110010101000
1111111110000100
1111111111011101
100011
10001111
110101110
1111111101101101
1111101100000000
1111010001101110
1111000111000010
1111000110110001
1111011000110000
10011111
1111011101
11011010110
1111100
11110011100
1010110110
1010111111
1111110010101000
1111110010110100
100001010
1111110010111011
1111111011111000
1111111111011101
1111111111010100
1111110100111011
1111111011010100
1111110000100110
1111110110111110
111
11011
1110111
110010110
110101101
1111101000010101
1111001010110101
1110110100110001
1110110110100101
1110010101100000
1110011001000111
1110110011110011
1111011100001101
1111101001000111
1111100100110001
1111111011101110
10000110000
1111101111000100
1111110011111000
10001000101
1111111101000011
10010101111
11011000101
1111111111101100
1100010110
10010110
1111111100001100
1111111111111000
1101
100001
1111111111110101
11000001
1111111100
11011001
1111011011001100
1111011100110100
1111100101001000
1110110011100010
1110001010111001
1110001010001000
1110001010100110
1110010001001110
1110111110000100
1111010010110100
1111110101000001
1111111111000100
1111111111111110
100010000
10100100011
10010001100
11101000010
11100001
101111010
1111111100110010
111110
100010
111
1111111111011000
0
1100111
1101100101
10000011000
111001101
11101
1111111101100101
1111111000111011
1111101111011001
1111100011000110
1111100000001111
1111101100011101
1111111010000001
1111111000100000
1111110101110000
1101111100
1111111011101110
1111111000110111
1111111101111000
1011010100
1111111100001000
1111111110111000
1100100111
1010111
110010
1111111110111101
101001
0
1111111111111000
1001101
111011101
1101101111
11010100111
1101110101
1010010001
100001010110
11110100000
11011010001
100100000111
1000100100
100010101
111011110
1111110111001100
1111111011101001
111111110
1111111011000110
1001100011
11111101
1111110110111001
10100010101
1111111011111110
100010
11101
1111111110011110
10101
1111111111000111
1111111111000110
1111111100110000
1001101100
100101000000
100011000011
10110110110
1110000011
10111000101
1011100111
10110011000
11101110011
11010100000
10011100111
1010010100
110100110
1111111101010111
1111001
11011110
1111111101001101
10011011000
1111111001011111
1111110011001100
1111111000001101
1111111010010111
1111111110010010
1111111111000101
10010
1000
1111111111111110
1111111100100111
100101011
10111101010
100001101101
10011000111
1011011
1010101101
111011111
101100001001
11011101101
1101100111
111111100
100100101
1101010010
1111101010010100
1111111010111000
1010101
110000101
1000010001
1111111000100101
10000000
1111111101101110
1111111001101000
1111111100001010
1111111111111110
10
10110
1010
101101
1001011110
10110001101
10101111010
1010110110
1111111101111011
1101011101
1110111001
10101110000
10011011000
10101
1110100110
1111111100001001
1100011110
10010110
110101110
1111111100000010
111101010
1011000100
1111110100100011
1111110000100011
1111110011100111
1111111110000100
1111111101101010
1111111111101001
1111111111011100
100110
10010
1110011
100100111
1011110001
1100001110
1001000101
101010110
11011111
11000100000
11010110010
10110111001
1111111011010000
1111111101000111
1111001010
101001010
1111111011111010
1011001111
1111110100000111
1111101110011111
1000111111
1111111010110100
1111110100001011
1111111001010010
1111111011101101
1111111110011010
10101
101
1111111111100000
1111111111001100
11011
11011
10100000
1000111101
111010001
101101010
1000010000
1000010101
1111000
1111111110000101
101100111
1010110011
1111110101110011
1001100
1010011000
11110111
1111110010100100
1111111110010100
1111110110011111
1111111010011010
1111111010011010
1111111110100110
0
1111111111111100
1010
1111111111010111
1111111111100111
10110
1111111111101001
1111111111010111
1111111111100001
100011
1110110
1011100
1111111111001101
101000001
111011101
1100011
1001011011
1001110100
110001001
110111000
1100111000
111110011
11100100
10100110
100111110
101100100
10010001
1100
10101
1111111111011111
1111111111011010
1111111111111110
1010010
11100
110
1111111111000111
110
1111111111101110
11001
101111
1111111111101001
1111
101011
10001
1000011
1111111111011000
1101100
11010
11000
1111111111111111
1111111110101101
1111111110101000
110
0
10000
1111111111100011
101
10101
1111111111110011
1111111111111010
