11110
10010
11101
10010
1111111111101011
1000
10010
101000
1111111111110010
111
1111111111011101
10100
1111111111010100
111
1011
111
11
100000
10000
1111111111111011
10001
1111111111001101
1111111111110101
1111111111100100
100100
1111111111101101
10
100111
1001101
1111111110111011
111
110010
10
100101
1101
1111111111010010
1111111110111100
1111111111010011
1111111111110101
1111111111110100
1111111111111011
1111111110101110
1000010
1110000
1111111111001111
1111111111101001
110100
1111111111100000
111
1111111110110111
1001
10011
1111111111111111
1111111111110011
110001
1111111111111110
1111111111111000
100001
10101
101001
1111111111110000
1111111111111100
1111111111010001
1111111111000110
1111111110101010
1111111110101011
1111111101101111
1111111110111101
1111111110010101
1111111101110101
110
11101001
10110011
1111111101011001
1111111110010011
1111111111111101
1111111111111000
10010
10011
1111111111100101
11011
1111111111111111
1111111111100110
1111111111111000
10010
10101
10101
1111111111010100
100
1111111111110011
0
1111111110011000
1111111001111010
1111110111000111
1111110110100101
1111110100010110
1010110
1111111100000111
1111111000111011
1111110011110111
1111111
1000100110
100010000
110101000
10111011
1111111000010000
1111111011000000
1111111101001001
1111111101011000
1111111110111000
1111111111100010
10000
100100
1111111111001100
1111111111110010
1111111111011001
11110
1111111111000010
1111111110110100
1111111110010011
1111111000011011
1111101111000001
1111101010101001
1111101010010111
1111100001011001
1111011101100100
1111011010010110
1111100101100010
1111111101011111
1111110110011001
10101111
10100000101
11000111
1111111011110001
1111111000010011
1111111100011001
1111111001011001
1111111100011101
1111111110010110
1111111110011111
1111111111101100
10111
1111111111010000
1000
100011100
1010001010
1011011010
1111111100011011
1111110100111101
11000110
1111110110111111
1111101111001101
1111101111011110
1111110110101000
1111110101010001
1110110
1111111101101011
1111101111110110
1111111100001000
11001100
1111110110101001
1111110110110001
11
1111111011111011
1111111111011010
1111111100101001
1111111111110110
1111111111111111
1111111111111000
10011
10010
10100101
110000001
110000111
1100111100
1011110001
1111101100
1010000011
110001
111100001
1111110100010100
10100011
1111110101000111
1111110010010110
11010011100
10100010001
100001
1111101111110110
1111110101010010
1111110110001010
1111110110011010
1111110110100001
1111111110001100
1111111010110010
100010
1111111111111001
1010
110
11001111
1000001100
101110100
1111110100111011
111110010
1111111101101011
1111111011001101
11010010
1001011101
1111111100000110
1111111000010010
1111111110100001
1111110101111100
1100101
100000000100
10110110100
1111111001110000
1111111110101010
110101
100000011
1111110100001101
1111101101101001
1111110101101011
1111111110110100
100001000
1111111111110001
11001
110110
1110110
101011100
11010000
1111101010001100
1111111110111111
1111111111010100
1101001011
10000101100
1111111101011101
1111110010010110
1111110100011001
1111011011100100
1111110011110010
100101100011
1010011110
1111111011110001
10010001110
1010000000
1111110001010001
1111111011011010
1111100011110001
1111101011111000
1111111000010001
1111111110100101
1010111
1111111111110010
101001
1111111111000101
1111111101011111
11110001
111100001
1111100100110001
1010001001
1111111111001111
111111100
1010101
10001001111
100010000
1111111110001100
1111100110000110
101010111
10101100101
1010000110
10111011010
1001001101
1111111000001100
1
1111111001011000
1111111110100010
1111100101001001
1111110110110111
1111111100001110
100001001
110100010
0
1111111111101111
1111111110001000
11110000
1001011000
1110010
1001111010
1111110010100111
1111111011001110
1111111100001011
1111111111110011
1111110010001111
1111011110101100
1111100011100011
10010001110
101000001010
10111101011
1110111010
1000010
100101000
11001010
11000100
1010101111
1111111101000100
1111111011001010
111001
11000010
10000101
0
1111111111001101
1111111101110011
100111
1001111011
100000001
110110100
1111110
1111111000101010
1111111111100001
1010001
1111100110111001
1111100100111110
1111101110000010
11110101001
11110111001
10010001001
100101111001
111101010
1111110111101000
1110111001
10111101011
11000101110
10000110000
1111111000100001
1111111011011001
101111
1111111111100011
1111111111101110
110
1111111101010010
1111111010000100
1100000111
1111110111111111
1111110101011111
11010010
1111000
1111111000011010
1111110010101010
1111110011101011
1111110101010001
1111111111101101
101011111100
100000100001
10101100000
11100110001
11101100011
1111110101001111
11011010
1011100000
11101010110
10000001110
1111111000101111
1111111100001100
1111111111110100
1111011
1
1111111111001010
1111111111101101
1111111001010010
1111011110
1111110110000000
1111111001000101
10010010110
1010100
1111101110001001
1011010111
1010110011
1110
10100101100
101011001001
100111101110
100001111010
100101000101
11111110000
1011000010
1111111101011101
111111001
10011100
1111111111100101
1111110111100000
1111111001001111
11
1111111111100110
1111111111100010
1111111111101101
1111
1111111011101100
100001110
1111111000000101
1111111010100100
101011111
1111111101010111
110101111
1001110100
10001100010
10010100000
1000011110
100100011000
10110010000
1111111111011100
100001101
11001101100
110111001
1111111101000000
11111000
110010100
1100111000
1111110100100001
1111111000111001
1111111111001001
1111111111110111
1111111111010001
1001011
11010
1111111010001000
1111111101111011
1111110001011101
1111100001000000
1111100111011001
1111110111101010
10000110
1111111001
1101001011
1010010101
1111111101010010
1111111101011000
10001010000
10100101100
10010110010
1001010011
1111111001000100
10011101
100000011
1101110111
101101100
1111110100000110
1111111001110010
110010
1111111111100101
1111111111010101
1110
1011000
1111111100000000
1111111111100100
1111110010001111
1111100011010111
1111100110011001
1111101110010001
1111111000101001
10000011001
10110011101
10111100000
110000100
1111111010001000
10101000000
1100101001
1111111100000101
1111111101100011
1111110100100011
1111110010111111
1111111111011001
1111111000100011
1111110000101000
1111110000110010
1111111010010000
1111111110101001
1
1111111111100111
101
10000010
1111111101111011
1111111101001100
1111111011100100
1111011101100111
1111011100000111
1111010111100100
1111011001011111
1111011000101010
1111100000001110
1111110000110101
1111110000001000
1111110000010010
101110100
1111110010011111
1111101010000110
1111111101000100
1111110001111001
1111101001010100
1111111000100101
1111111000011000
1111111101001110
1111111010011101
101001000
10110100
1111111111111101
1111111111100000
1000010
10010000
1111111111010110
10011
1111111010100000
1111101001000110
1111010110110101
1111001101010100
1110111011110100
1111010000000110
1111101011110111
1111100101101010
1111101111101111
1111011000100101
1111111010100110
1111111011000010
1111111000101011
1111110010011001
1111100110110111
1111111001101010
11111
1111110010101111
1111100101100100
1111101110010000
100001011
100001100
10000000
10010
1111111111101111
1111111101110100
1111111100010010
1111111111111001
1111111010101111
1111110111111010
1111110111010010
1111100000100110
1111100100110100
1111100010110101
1111100100100010
1111111011011110
1111101011000000
1111101100001101
1111111100010000
1111111101000111
1111110010110100
1111110010011010
1111110101000001
1111101000100011
1111100101011110
1111100111100010
1111011111010010
1111110100110001
1001011000
1111111111111010
10001
101010
1111111111111000
1111111011101111
1111111100000101
101101111
1111111111100010
1001100110
1111111100010101
1111110110010110
1111110110101010
1111110010010011
1111110001111011
1111110001010101
1111110010001101
11011001
1111011101010110
1111110110010111
1111111101010011
10011110
1111111101110001
1111101000100110
1111110100111011
1111110111101000
1111101001100100
1111111110100111
100001101
100110
111110
1
1111111111110101
1111111100100010
10000001
1100010010
10110000000
10101010000
1110100101
100110000
1001101101
100100010101
1111110110000011
1111111011001010
11010110
1111111011111000
1111110000001110
1111111111110100
1111011110110001
1000000010
1111111100101100
100110001
11001101
1111101010001000
1111101101110101
1111111100111010
10111011
0
1010
1111111111010000
100101
1111111010111000
10001000
10001000000
11010000101
11100110101
10010000110
11000110001
10001101111
1010001011
1111111110001111
1111110010111001
1111111110111011
1111101111111101
1111111100001000
1111101101100000
1111111001110100
1111110001010001
1111111001101001
1111101101001000
1111101101101110
1111101100000111
1111110100011111
1111110100000110
1111111110010111
10000
1111111111011101
1110
1111111111101001
1111111111010000
1100
1001111111
1101110110
1100001011
110010101
1111110001111100
1111111000101100
100110110
1111111101101110
10110111
1111111100000100
1111100110101101
1111101000111110
1111101101000010
1111101000101111
1111111011010011
1000100
1111101010111011
1111101011100101
1111101110001000
1111111001000010
1111111000101010
1111111100111110
1110
1010
10010
110110
1011101
11011111
101000001
1001110000
110000000
1000000111
100011011
1111010
101111101
1111110001000100
1111101000110101
1111110101000111
1111101011000011
1100011010
1111110001101001
1111101000000100
1111101101101110
1111110011111110
1111111000101001
1111110000100011
1111110011000101
100110
1111111011001101
1111111110110000
1111111111100101
1111111111101100
1111111111111010
11001
1010
10
11101101
1000101111
0
111001111
1010101100
1111111101110110
1111100111111111
1111101010111001
1111101011111111
1111111111110110
1100100
1111111000011001
1111110101111100
1111110011000011
1111110110100101
1111111111100000
1111111101010111
1111111010101011
1111111100010111
1111111011110111
1111111100100110
1111111111111000
10111
1100111
1111111110111111
1111111111100111
11010
1111111111110100
10111
1001010111
1100001111
1100101010
1010100110
1101011110
10000011110
110000110
10110
1000000000
10101000010
1101011011
1001011100
1011010000
110000011
1000001000
101111111
10101111
10101
111111
10101
1111111111111000
1001
1111111111110100
1111111111101011
11111
1111111111111111
11110
1111111111111001
1111111111110100
100100
110100
11001
1111111111110010
1011100
1101001
11011000
11111
100010011
110001000
1110101
10001110
101111110
11101101
1111111111101100
111
1111111111111011
10101
1111111111011111
1111111111110011
11110
1111111111111100
