1111111111101011
101
1111111111110011
1111111111101111
0
100100
1111111111000010
1111111111100100
1000001
1111111111100110
1111111111100100
1111111111100100
1111111111001000
100001
1111111111110111
11
1111111111110010
1111111111110111
1000
1111111111101110
1111111111110001
101100
1111111111101110
1111111111101001
10001
111
1111111111011000
1111111111110000
1111111111011001
1111111111110111
1111111111001100
1111111111110100
1111111111010100
1111111111100111
1111111110111010
1111111111011000
1111111111001101
1111111111100010
1111111111101010
1111111111001111
1111111111100111
1
1111111110110000
1111111111100001
1111111111111000
10110
1111111111011011
1111111111011010
1111111111101111
1111111110011111
1111111111101100
10010
10101
1111111111101111
1111111111000110
10101
1111111110110101
1111111110111111
1111111111011110
1111111111101001
110000
1111111111110111
11
1111111111000100
1111111110000111
1111111100010110
1111111011011111
1111111000111100
1111111000100000
1111111000001110
1111111000110000
1111111010110010
1111111101000111
1111111110000010
100111011
1111111101110010
1111111110100001
1111111111000111
10010
1111111111000100
0
1111111111001001
1111111111111011
0
1111111110111101
1111111111110001
110000
1111111111011010
1111111111101000
11011
1111111111001001
1111111011001110
1111110101000110
1111110011010100
1111110110000010
1111101101011001
1111110100001100
1111110110010100
1111111000101100
1111111001001100
1111110011100001
11000101
10000011101
10011100101
10000101100
101110010
101000110
1110001
1010010
10111
1011111
11101
11100
10010
1111111111111001
101101
11
1111111110100111
1111111110001111
1111111100111001
1111111010011001
1111101110101000
1111110100010101
0
1111111011100000
1111111000001011
1111110110011010
1111111010100000
100011101
111001010
11000110101
10101001011
10111111111
1101010000
1011010110
1101011000
1101111100
100111101
1011110
100001
1110
10010
110000
1011
10111010
110111000
110000100
1100111000
101010110
101101010
1111111101001010
1111111000000100
1111101111001001
1111110101100011
1111110111111111
100001000
10101010000
1001010011
101011111
1111111101110011
10011011
110001111
1100000011
100010000
1111111111011011
1111111111110100
1111111111010001
1111111111110001
10000
10110
1110
1011101
100101011
10000001010
1110000110
111001010
10000110101
1011001100
1001101
1111111101100110
1001101110
11100110
11011000
1000000011
10110011011
11011111010
11010000010
11101010100
10101010011
1000111000
100011010
11111000
110001100
101101100
11110000
1000110
1111111111111110
1111111111111000
1010
10110111
111001000
1111010101
1101000100
11010000
1101010111
11000000100
110111100
1111100111111110
1111110000011010
1111101101011101
1111111001001101
10010000000
11101001100
101000101101
1111110110
1100110010
10100010010
1111111111010110
1111110001100111
1011000101
1101011110
111111110
101000001
11000
1000
11010
100111
11000010
1001110110
111101010
1111111110011111
1111111110001101
1001110111
10111000100
10100110
10011100
1111111100011011
1111101011010010
1111110110111100
1011101010
1111000001
10011011001
1011001001
10000
1111110010
1111101110111101
1111111001011110
11000110
10010011010
1010110000
100001111
1010010
11001
110011
1011010
11101000
1101011000
11010001
1010010
1010010111
10111100100
1111111011110111
1111111000101001
1100110011
1111111001011110
1111101001001100
1111110100011111
10
10011010011
110101100
1111111111110101
1111111101000111
1111111000100100
1111111110011110
1011000011
110011100
101110110
1010011101
101000001
1111111
1111111111110110
10110
1111111111110011
1100001
1011001010
1111111001110010
10011111010
10100111010
10001000101
1011011111
1111111001010100
1111110010100011
1111101110111101
1111111001010010
100101000001
100111111000
11101110
11101111
100101000
1111111011101001
1111111111111110
11011101
1101101100
10000101001
1111111101000010
1000111001
101001100
101001
1111111110110101
1111111111011100
100011
1000100
1000011100
1111110101111101
11111110
101000110
11010010
1111000000
11101111
1111111101011000
1111111101011100
100010001010
100010011110
100011110010
1000
100011110
100101011
1111110010011111
1111111100010100
1011110110
1111111111000000
101110100
100010100
101010101
111000110
11100
1111111111100100
1111111111100101
1111111111001100
1111111100011000
1111111011111000
1111111000101111
100100011
1111111110001101
111100000
1010110110
101111001
10010111010
11010111011
11010001100
1011010000
10010010100
10100010001
100011010
11000100110
1001101
1111111100000100
10100111000
1111111111110000
1111111000101110
1111111011001001
1111111111110111
100000110
1111111111010101
10
1111111111000010
1111111110101110
1111111100111110
1111111001111100
1111101101111111
1111111000110110
10010100
1111111110111101
1011101000
1010010111
100011011011
10111111101
1010011
1110010111
10111000110
100000010000
10000011111
11010100101
10011100010
10101001100
1111100000
1111111111001000
1111111100001101
1111111011010111
0
1111111101001111
1111111011111100
1111111111011001
1111111111101011
1111111111110010
1111111010001111
1111110100011001
1111110000100110
1111110100110101
1111111110100110
1111111011110011
10011000
10001011111
11100101011
1010010111
1111111111001111
110001000
1111111000111000
10001010101
1101100000
1101110101
10011110010
110111011
101011000
1111111011010110
110111100
1111111101001010
1111111100011010
1111111010011111
1
1111111111000111
1010111
1111111111101110
1111111010100001
1110111
1111111100001010
1111110101011010
1111110101010110
1111100100010100
1111101110010011
1111101100011110
1111111000011010
111100000
1111110100101001
10110101
110010010
1111101111010001
1111110010110111
11011011100
111010110
11010000
1111110010100101
110011110
1010111010
11100010
1111110000011010
1111111000011011
10001
1111111111011101
1000
1100100
11001100
1111010111
1111110010011010
1111101011100000
1111111000100011
1111111011101001
1111101110100010
1111100111101000
1111101100001110
1111111110101001
1111111110110001
1111101101101001
1111111111000110
1111110010101001
10010001
1111111010111011
1111110000110010
1111110011010101
1111101010110000
1111101111110001
1111101110010000
1111110010101111
1111101010101111
1111111001011101
10010
1111111111101010
1010111
1111111111011011
11101001
1001111011
1111111001111111
1111110101000010
101111011
1111111110111000
1111111010101001
1111111010100110
1111110001101000
10100110
1011111
1111110000111000
1111110101001011
11011111
10010011
1111111000000100
1111111011100000
1111110111111110
1111101010100001
1111101111001010
1111111110111010
1111110011001011
1111110001101011
1111111110011000
1111111110111101
1111111111111110
1111111111111110
101
1111111011000101
1111110111010101
1111110011110000
1111110010111101
1111110011000101
1111111000111101
1111111001110110
1111111001111101
1111111001001110
1111110001111001
1111110100000001
1111011011010110
1111110111111000
1111110010000000
1111111001010001
1111111000111000
1111110110101011
1111110100011111
1111110101010100
1111101111101010
1111110000100000
1111100101101011
1111110101001111
1111111111100000
1111111111001100
110000
11011
101100
1111110111001111
1111110100010100
110001
1111111001111001
1111111100011110
1111111100101010
110100000
10110101010
1111110111101100
1111111110001010
1111111001101001
1111100101000001
1111101010010100
1111101110001001
1111011
1111111010110000
1111101000001111
1111110111100110
1111110000110000
1111110110001010
1111101111110111
1111110001111000
1111111100110111
1111111110011100
1111111110110111
1111111111000111
1110
1111111111001111
1111110101010010
1111110011110011
1111111100111101
1111111000100111
1111110001000000
1111111011010000
1111100101
101110101
1111110111000001
10101010
1100101010
1111100111011000
1111101000011001
1111100111111010
1111110100110010
1111100011101100
1111110100101011
1111101001111101
1111100101010111
1111101111101101
1111101101001011
1111110001100111
1111111101001101
1111111110110010
10001
0
1111111111100011
1111111100111011
1111110111000100
1111110010110001
1111111001010001
1111111110001010
100110101
1000111011
1111001000
1101111
10101001
1111110001100001
1111101111101110
1111100001100101
1111101111110000
1111101111011111
1111101011010000
1111101001000000
1111110001101110
1111110101000110
1111110001001111
1111110000010000
1111101010001010
1111110000111001
1111111110001111
1011110
1111111111010011
1111111111101101
1111111111100001
1111111011101100
1111111001001110
1111110011111111
1111101111001000
1111111001111010
1111111010110001
1111110001010010
1111110111001101
1111110010000100
1111111110101010
1111111110010001
10010000000
1111101100
1111111101011110
1111110110011000
1111111011101001
1111111101111101
1111110110010000
1111100111100111
1111101001010001
1111110101110100
1111110101010000
1111110111111101
1111111010010011
1011000
0
1111111111001000
10111
11101
110110
10010101
100000111
1000101100
101011101
1111110100111001
1111110111111001
1111110111110001
100110101
11011000001
100100010110
1101011111
10000000100
1100001111
10110000111
1111110101
1111111111001110
1111110011001101
1111101110100110
1111110011111000
1111111010111111
1111111110101111
1111111010111101
101000
10110
1111111111111111
11010
1000001
1111010
11000101
1001100110
1110101001
1011001000
110101100
1111111110001111
1111111010011111
1111111110110110
10011111000
10110100111
10111000001
11001101100
1010010110
10010000010
10001110000
1010001111
1101100111
1010011010
1010101
1111111110010010
1111111110011110
1111111110010010
1111111111100111
1111111110110110
11101
1100
10
1011000
1011000
100110000
100111000
1001101101
1110100111
10111101111
1111110011
1000001011
10100111001
1000000010
1101110110
101101001
1111111110100000
100011111
1011101000
11011001110
10011001011
1001001011
101010111
10001001
1100100
101
1111111111111011
1111111111101110
1111111111100000
111
1001
1111111111000010
1111111111010110
11001000
1111001
101010011
110111100
1011101111
1001010110
11111100
1111111111001111
1111111011110110
11100
1110101
110101
10101100
110010101
1011001001
101101111
10110101
1101100
101000
11000
1101000
110110
1111111111110011
1100
110000
1111111111000010
1111111111110010
10100
101000
1111111111000110
1000011
101000
0
10111
10110
11000
101100
11101
100001
10101
1000010
1111111111101001
101100
1000
100111
101010
111101
11001
1111111111111000
1111111111101000
1111111111100000
