111000
1010
101011
1111111111110101
1111111111101100
10101
11101
1111111110110011
1111111111110100
1111111111101110
110
0
1111111111011010
1111111111010110
1111111111101011
1010
11000
11101
1000
1111111111100000
110
1111111111110100
1111111111101001
1110
1111111111101000
1111111111111001
1111111111010100
1010011
1111111111000010
1111111111111011
1111111111101010
1111111111100101
1101
1111111111101111
1111111111110011
1111111111100000
1111111111000101
1111111111001111
1111111111111100
1111111111011010
1111111111100110
1111111110101111
1111111110100011
1111111111111001
11110
1111111111011010
1111111111011100
1111111111100001
0
1111111111101010
1111111111101000
1
1111111111110111
101000
11101
1
1110
1111111111111111
1111111111010110
1111111111110101
1111111111101110
10000
110
1111111110001110
1111111100000110
1111111011111001
1111111010000110
1111110110110100
1111110011100001
1111110110100010
1111111000011101
1111111110001010
11111100
11000100
1101011
1111111110100101
1
100
1111111111001011
1111111111010011
10111
10000
1110
100111
11011
100
101001
1111111111110100
1111111110111110
1111111111011101
1111111010000001
1111110110101110
1111110100101111
1111110000101111
1111111001110111
1111110110111101
1111111111111001
1111110110110001
1111110010000000
1111110101100100
1111111011000010
111100111
10101000001
1010111110
1101010011
1001000100
1111011
1011110
1111111111100000
1111111111100101
1111111111100101
100001
1110
1001
11
1011
1111111110110000
100011100
10011010
1111111000001001
1111110111101011
1111111010101100
1111111101011101
10011000000
1101111110
1111110101111100
1111011110111001
1111101111111011
1111110110110101
1111110011100011
10011100100
100011100010
100010000011
11000100101
1111001101
110000001
1001000
1111111111000110
1111111111110010
101
1111111111011110
1111111111111011
1111111111110101
10011110
1111111101110111
110001001
1111111010111101
1111111000010010
1111110111000100
1111111110110000
1111111110001001
1010110101
100100100
1111101111001101
1111101111010100
1111111110001110
11100011100
101111110011
101110111001
100111100011
10100111100
10101110000
1010011101
1000000
1111111110100000
1111111110000000
1111111110101011
1111111111101111
10111
111011
1111111111110001
100110101
1111111110011001
1111111100111000
1111110111001001
1111111001010100
100001001
1111111001110100
1111111100011110
1111110011111110
1111110101000011
100101100
101101010
110010101100
110111010111
101100000010
100010100111
1111110111101010
100100100
1011001001
10
1111111001111010
11010000
110001101
11001011
100100
1111111111001000
1111111111110010
1111111110101011
1111111101001110
1111111000110101
1111111101001101
1111111011110010
1111111001000101
1111110111011010
1111110110001100
1111011110111001
1111101000011100
1111111101001000
1111111110101100
100101010101
110001001100
111010101110
10101010110
1111100111010111
1111110110011001
1000100011
110000
1111110010111101
1111110111001111
1111111110011101
101000110
11000
1111111111111010
0
1111111111100011
1111111100100100
1111111011001001
1111111010110001
101111011
1111111111100110
1111101011111000
1111101111001001
1111101110010100
1111101010001011
1111111000010110
1111011011101110
1010011010
10000110100
11101110101
100111111100
1110110000
10100000001
110100
1111110111111110
11011011
1111111100000111
1111110100110011
1111111111101011
10011000
100110010
101001
1111111111010010
1111111111101111
1111111110001011
1000110
1111111100101100
11000111
1101011000
1111111111001000
1111111011010000
1111101011110100
11110
1111110111011110
1111100011001011
11100110000
10111000010
100010110100
10110110
1111110001100010
1101010010
1111111110100000
1000000100
101111011
10110001
1111110110100110
1111111100111111
111101010
111000011
1011101
11000
1111111110110101
1111111101001010
101001011
1111111110100001
110111
1101010101
1111111100001010
1110010100
1111111010101001
1111101100100111
1111111001011111
1111110101011011
1111111001101001
1100100001
110010111
10101110111
100010001
11001
10101010
1010100000
1111111110101111
1011000111
1111111000001111
1111110111111111
100111100
100101001
101011
1111111111011110
1111111110101100
1111111101010000
10010001
1111111000010011
11100110
10010000110
1010101000
10100001110
1111111111010100
10011011000
1111111010001110
1111111100100110
1110111000
1111101101001010
1111110100100010
1111111100001110
1111111111110011
1111110110100011
1111110101101010
100000010
1111111010010110
111010001
1111111111101001
110
1111111110101011
100101011
111111
111101
1111111111011000
1111111110101111
111100
1111111010001110
10100011111
10100111011
1100011101
1111111110100100
10110110010
101010000110
1011111101
1110100000
11011011010
1111111000100111
1111101100011001
1111111010110010
1111111101111010
1111111110010110
10110001011
101100110
1111111001000101
1001011011
111000010
1111110000001011
1111111101110110
1100110
100010
1000
1111111111100001
1111111110011000
111011
11101001
1010001001
110101000
10010110001
1011001100
1111111110010111
1110010010
100000000001
100010000100
11000111011
1101110001
1111111010111100
1111101111000001
1111111110100011
110010110
1111111101010010
1111111100111000
10110
110010111
1111110110001100
1111110010110010
111
1111111101101110
1111111110001000
1111111111011111
110000
1111111110111000
1100010
1011011110
1111111110101111
11111001
1101110001
110001000
11101011
110101000
1111000111
10010000101
11101110
1111111000101111
1111111111000101
1111110110100100
1010000001
1111101110010011
1111111000111110
1111111011110110
1111111101000111
1111100101000001
1111100010011101
1111110011001001
1111111101001110
1111111101111110
10000
101110
1101010
11101
1111111111110101
10100101010
1010111101
1111111110011110
1101100
1000010101
11000001011
11100000001
1010001101
1001001011
1111111100110010
1111111001110111
1110100010
10101111111
10111110100
1111111011110100
1001111011
100000
1111111011101011
1111110110101100
1111100101011011
1111101111000110
1111110111110000
1111111110111010
1111111111110011
1111111111101111
111110
10000011
1111111111111100
1100010001
1100110101
1111111111101110
100001101
1111111000111001
1001010010
10111110111
100010110
1111100101110011
1111101001100011
1111111010110000
1101001111
1111111011111010
1111110100110110
1101111000
1111111101101010
1110100000
1111110101000100
101110001
1111110001111000
1111110001010001
1111110011000010
1111111101101010
1000010
1111111111011101
100
1010111
10111101
100100000
1001100101
1000000100
1010111001
1111111110101000
1101100011
11011010110
1111101101100010
1111110110100100
1111101111101011
1111111001111000
11111011
1111110100110101
1111111101010101
1111110010010101
1111111001000000
1111111110000100
11011110
1111111101011111
1111110111001000
1111101001011100
1111110011101101
1111111101010001
11000
100100
100100
111001
10111001
100010100
1111101
1000101110
1111111111111011
1010001000
10001000100
10010110111
1111110001110100
1111010010000100
1111100010101111
1111110001001100
1111111110100110
11101000111
11011101
1111110111110101
11110000
11101110
1000000101
1011111010
1111110011000011
1111101100000101
1111110011101100
1111111100111001
1111111101111110
1111111111010111
1
1111111111001110
1111111111011110
101001
1000010011
1010110
111010111
11000110110
10000011010
1101101010
1111100111111011
1111110011010100
1111101100011001
1111110001001100
1111111001111001
10001001101
1111111111001101
10001010000
1010111101
11100000
100000000
10100110110
1111111011111010
1111111101000011
1111111100011111
1111111101011111
1111111111110011
1000010
1111111111100010
1111111111000011
1111111100011111
1111111100010101
1000111111
1010111001
10110111011
11000100101
11101000
1111110101010110
1111101110011001
1111011110001110
1111100111111010
1111011110011111
1111100100011110
1000100011
1000101000
11110001110
1111101010
1000011110
1110111001
11001100111
111111111
1010100010
10000101
1111111111001110
1
1000
111
111110
1001110
110111011
1011110110
11001010110
100111111011
110111010
1111101110001000
1111110001101011
1111110001000001
1111110011010001
1111100010110011
1111011011001010
1111110111111011
1101000010
11100111
1100101101
1101101110
1100001011
1011011110
1101110100
1001111101
1011000001
1111111111001010
1111111110000110
1110
101111
1111111111011101
1111111111101001
100001011
1011110101
1101001101
11100010001
11100000000
1111101
1111111110100100
110001110
1001010101
100100111
10100001
1111100010001100
1111100110100010
1111110000011001
1111111011000101
1010101101
1111111001111101
1111100111
1101010111
11110010
111101111
1010011110
1111111111100111
1111111111110001
100111
1001
1111111111101100
1100101
1010011000
1111111100
1010110010
111011111
1101001010
1001100111
1111101110010111
111101
1111111111110101
1111111110000111
1111111101101010
1111100101111010
1111101110110100
1111110000010110
10000
101011000
1110101
10000101110
111100000
10011010
110011010
1101001101
101100
1111111111111110
1100
1111111111011101
0
1100000
111101101
110111101
110011111
1000100000
1100001011
1101101101
1111110111110010
1111110111100100
1111101110110001
1111100110100100
1111011110011111
1111100110011111
1111111011011000
1111110010010011
1111111011010100
1111111010011110
1111111111110011
1110011010
1011110000
10001010
101111110
1100001
1111111111100110
10101
101011
1111111111011110
1111111110111101
100100
1100
101100
111011111
1111001110
1100101001
1110010011
1011001001
10001010100
1111111100010000
1111110111100000
10101101
1111111100100100
1111111101110000
1111111000010010
1111110101001100
1111111100000101
1010010100
1000101100
10011101
10010001
1011101
10111
1111111111101000
1111111111111010
11
1111111111101101
11110
10
110
10001100
100000001
1001011110
1000110100
11100011
111001101
1100110001
1011010000
10000011010
10000111110
1110111000
100111000
101111
1111111011010110
101001000
100101100
10110
110110
1101001
10011
1110
11010
111111
110
101001
1000101
1111111111110110
1111111111111101
0
1111111111011111
1111111111111111
100011
1000
1111111111110001
1111111110101000
10100000
110011001
10011
100000
1111111101111111
1111111110111101
0
100111000
1111111110011000
1111111110111111
101
1111111111111110
1111
1111111111011110
10
1111111111010110
10100
