1001111111
1110110011101101
1111111001011101
1111010110101110
10000000010100
1111111011001110
1111110001011101
100010010001
1111100100001011
1000111011001
1111110110111010
1111001
1101011111
1110110110100000
1010000100
1100110100
1011101001
1110011001110100
10000110010
1101100010
1111111110011010
1111001110
1111101101001010
1111000011010000
1111101110101001
1111101010111000
1111101111110010
1111110010011011
111110100100
11111001111
