110010101001
1110110000011001
100101000110
1110011010111111
1101000100101
1010000111100
1111101001001101
1100001110
1111000110100000
1101110010010
1010100
1110101010010000
1111001110011010
11011110000
1010010110
110101101
1111101110101110
1110110011101011
1110111000110111
1111010000110111
10101011
1110111111010000
1111010100101011
1111010000011010
1111111010000110
1111101110001011
1110111110000001
111100011000
1010010101111
1101010110111
