10000011001
1101100010
1111001001101101
1110011100
1111011111010100
1111110010000000
1110010
1111111001011111
111100111010
11000010111
110001000
1111010001010101
1001110001000
1001111001
1111110010111101
1111011110000100
100001011100
11011101110
111110100111
110111010
1111110110100000
1111101011100011
1111011110010000
11101100010
110101111110
1111010101111110
101111110001
1111000101001011
111000010
10110111001
