11000010010
10010011
1000000111011
100011111000
1111101100000110
1110111010000110
1111000111000101
101100110
1110110100111110
1110111000100111
10011100100
1011101001111
1110010111000011
1110011010111111
1011011101111
110000110000
1111101111001000
1111010001000011
101101101010
101010
1111101010010000
1010110001111
1101011110
1111100001001100
111101101111
1100100101011
1110111101101001
1111100010001100
1111100110100101
1110100111110000
