1111000101010111
1111011011000011
1110100011010101
1110100010001110
11010001110
1111100001010010
1111101101011011
1110111000010100
1111010011011011
1001100011000
10110101001
1000000011
1100110010111
101100111011
10110000010
1111000111111111
11100001110
1111100100010101
1111110011000110
1111001110000100
1111111111000001
1101111011
1111011101100110
1111000110100110
100000010101
11001011101
1111111001010010
1000101011101
1110110001110101
11111000001
