1110101101001000
1111011110011011
1111110010111001
1111011111000001
10000100100
1111101011000010
10000011100011
10001101110
1000011000011
1111111011010110
1110011010101100
1110000
1111010100100100
1111011010001011
1111011011101011
1111110101010011
1111001011000010
1111011100111101
1111101011000011
1111001011110011
110110000
101010010010
101101011000
10010111001
1110110101010001
10000010000
101011010011
100011111111
10001111010
1011111110
