1011001100100
1111101100111001
100001111011
11010001000
110001101
101010011
1101111000101000
1111110011111110
1110110101110001
101101100011
1101101100100
1100010010
1111111101001011
1111111000101111
110111101111
1111101101000110
100010100110
11001000
111110010111
101010001010
1111011101101101
1111100010011111
1110111100010000
1111010010001001
1011000100110
1111110100100000
1110110100111100
1111100101010011
1111110101010111
1101001010
