1111100000101000
1010111100
1110111100001101
1111110001001011
1110011101010111
10010101001
1010001001100
1110110100011000
1111110100110001
1100110101
1111111110001111
1111100101100110
1001001001111
101110111101
1110101100000011
1111011101001011
1111001011001000
1011100000001
10101110110
1110110000011001
1111101000000011
1111011111001101
11000010100
11100111
11001101110
11011101010
1000101001111
101101001101
1111011000000110
10100101010
