110101101000
10001111110
111101011110
1111101101000001
1110100001
100010001001
1110010101101010
1111111110001101
1111000101001101
1111011001101001
110101110111
1111111101011011
1110100011111000
1111110010010010
110111111011
1111111010010111
100111101
1110101001110101
1110100001001010
1000101000000
1000100100010
1111111011111101
1111011000110101
1111100011001001
100010010
1111011111110000
1101111110100100
111000101100
1110001100
1111101010101110
