1111000000001011
101001011110
110010001
101101110000
1110000011101101
10100101011
1111000110101001
1011010
110011000110
1110101001101000
10111111111
1111101010111110
1111011000100011
101100101011
1111111111101110
1110110010010110
1110110100101111
1010110111011
100110111001
1100001011010
1000001111000
100100001111
111101010011
1110110001111
111110001101
1111101011000010
1101111001
1010011100
1111001011010110
1111011100000101
