1101001011
1110111101100101
11010111110
10001111101
111000111011
11100101
110110101
111111100010
10000011101
1111101110010011
1111001100000110
1111100001001001
1111001000100100
1110001000101100
1111101111010010
1111111011001110
1110110000010110
1010111
100100111011
110011010010
1111101100100001
100010100101
111110100100
11100011010
1111100110111100
1111011110110000
1111110111100110
1110101010101011
1100000111001
111100100010
