110001010110
1111100101101011
100111011001
101110111010
1111100100011011
1101110111100110
1110110001100101
1111000101100111
1100101000
1110101100011010
1100001100110
1111110111100011
1110111000010111
1010001011010
101010100010
11000101001
1111001101011101
110100011111
1111111101010011
1110101011111001
11011111100
111000001001
1110001010
1111100111010110
101000001110
1111101110101110
110101001000
1111110111110100
100111010110
1010100
