101011101010
111110000101
1111000110111010
1101011101101110
1111000111101110
1110011110100001
1111101010111010
101010010000
10011101011011
1101110101101011
1110110000011010
1111110110100000
1110110000101000
1001110001011
111101001111
1111010100001001
100000101100
1011001110110
111011111110
110111000001
1001101010
111001001010
1000010000
1110100010111
1111101110111100
1111011011011
1111000100000000
1110111010000000
11000101000
1111111010001111
