1111010001001110
10011101011
1111100100011110
1001000010100
1110100100110
1110100000100000
110000010110
1110010101
1110001101111100
1110110110010110
100101010001
10110000001
1101100010111001
1111111110011100
1110101000001
1110100110100
1101110101110
1110001100111000
110011110010
1111111011111001
11101010110
1110101000110101
1111100001011000
1000100110010
1111110000001000
1111001111101010
11111010100
1111001101010111
1111011101011
11110111010
