1111010010010100
1111000100011000
110111111010
1110010101111101
1010101100101
1001010100110
101010001011
1010101100
1011111001010
1001111011111
1111011011110101
101001111110
1101001001
1111110111111000
1110100011010100
1111111011001111
1111111110011011
1110101101011101
1111100110001011
11100000001
10011110110
1110110011010100
1111011111110001
1111011100010101
1010010010101
100001100101
1111011110101000
10110101100
111001001
1110011101110110
