110
101
11010
1111111111110011
110111
111
11100
1010
110010
111100
0
1111111111101000
111010
101100
1000000
1111111111001101
101110
110
100110
1111111111111011
1111111111111111
1111111111100010
1111111111110110
11000
0
0
1111111111110010
1111111111111000
100000
1010101
11100
11
101010
100010
1111111111010101
101
1111111111101000
1101
1111111110110110
1101
1111111111011101
1111111111101010
1000110
1111111111000101
1111111111100011
101100
1111111111111010
1111111111100110
10101
1111111111111010
11011
111
1111111111101101
110001
100101
1111111111101100
10000
1111111111011110
1111111111101011
0
10111
1111111111101001
101101
110
1111111111011000
1111111111101111
1111111110111011
1111111110010011
1111111110001101
1111111101010001
1111111101110010
1111111100110101
1111111101010000
1100
1111111111110111
110000
10
1111111111001110
1011
1111111111111000
1111111111111001
10011
100111
10001
100001
1111111111011100
1010
1100
1111111111100111
1111111111011101
1111111111100110
1111111111001001
1111111110101010
1111111100111101
1001010
1111111111111110
1111111101010000
1111110010101111
1111101111110000
1111101101001111
1111110110001011
1111111101110010
101000
100001
1111111110100100
1111111110100110
1111111111010101
1
1111111111101000
1110
10101
1111111111111111
101001
1111111111101010
1111111111110001
11111
1111111111111100
1111111111110101
1111111111011101
1111111101010100
1111111011010101
1111110101000101
1111110110101111
1111111001011001
1111110110010010
1111111000011101
1111110001001001
1111110110000110
11010011
1111111111101111
1111111001110110
1111111001100110
1111110100100110
1111111100011010
1010001
100110011
1111001
1100000
110
110111
1111111111111100
1111111111110000
1111111111100011
1111111111111110
1111111110110011
1111111101110111
1111111011010001
1111111000101010
1111111100110111
1111111110010001
1111111010100110
1111110100100111
100010111
1111111111001111
1111110111010000
1111110110000101
1111011011101110
1111101000010001
1111110011101110
1111110101011100
10001001
1111111011100111
1000
1000000110
101011011
101011010
1110000
1001001
1111111111010000
101
1000111
1111011
1111111101111000
1111111100010010
1111111101101011
1111111010001110
100000
100011
1111111100010110
11101001
1111111010000011
100110011
1100001111
10011010000
10001110011
10001101000
100101101101
1111111011101011
111010110
11001010
1111110110111010
1001
101110010
110100011
100101000
10000000
101011
1111111111010101
1111100
100011011
1111111100001011
1111110011011111
1111110111010000
1111101001001001
1111110110001001
1111110110111001
1111110
111100
10100100001
1010010010
11110000011
11101010001
101001000110
100000001000
1110110110
10001100111
1010001101
100111111
1111111010110100
1111110110000011
1111110101100111
1111111101110111
111110
100110
0
1111111111101001
1111110
11011101
1111110101110101
1111110100111011
1111111111011010
1111110000001010
1111111111000001
101001000
1111111100000000
10110110101
1101010010
1111110100110011
1111111110010000
10110101111
110011110001
1111001010
1011010011
110111000
100011
11000011
1111110010101101
1111101010001001
1111101011001110
1111111001000100
1111111111110000
1111111111101000
11011
10100
110
100010
1111111001010101
1111110001000011
1111111111110000
1111111000110101
11001010
110111101
1001101
11001
1111101110110010
0
110010011
100001010000
11001010000
1100111111
10000100001
10000001110
1100001
1111110010011110
10000011
1111100000110100
1111101101101011
1111110111100011
1111111101101101
1101000
1111111111110001
101001
1111111111111000
1111111110111010
1111111000011101
1111111010000111
101011100
1111111101011111
110011001
1111111010
1111100000100010
1000101101
100011000
1001011
10011001
1111111111100110
1111110111100010
1111100010010101
1111111011101111
1101011110
1000110101
1111110111011010
1111111110001101
1111101001100111
1111110100110000
1111111101010100
1111111110111011
1101110
1010011
1111111110110011
10111
1111111110000111
1111111000110011
1111111011111000
100010001
100011101
10011101101
1111111101111110
110101100
10101001111
1111101100100110
1111110111101111
1111111111110110
1111100001001010
1111011010101001
1111111001110011
111100001
1110100001
11010010111
10001001000
101101000
100000001
1111111111000111
1111111101011101
1110111
1111111111101011
1111111111111101
1111111111011001
0
10110010
1110010
100100101
1110110101
1110
1000001000
1100110
1110100100
10100010
1111001111011110
1111011001111111
1111100101111111
1111110111000110
100010010
1111110010010110
1111110101110100
10010010100
11010000110
1100000001
1111111000000110
11110011
1111110000011110
1111111011110111
1111111111110001
1111111111011100
1111111111101000
1111111111101100
1111111111001001
111010010
1101110000
1111111111101000
1111111011001111
11010011
1100010111
1111111001011011
1111111110101001
1111110010110000
1111010110011100
1111111100000111
111101010
10100111100
1000111100
1111111011101011
1111111100001100
1111111111000001
1000101000
1111111111100011
1111110000101111
1111111010110100
1111110001011111
1111111111110101
1111111111101001
1111111111010101
1111111111011000
1011011
1111111110111100
100110011
10001100101
1111110010000000
110101
1111110010000100
1111111001001000
1111111110111011
1111111100111101
1111101100010010
1111100101100100
1001100
1001101111
10110011000
1111111010101110
1111110110101010
11
110110001
10001100010
1001101011
1111110000100011
1111101110001101
1111101100110001
1111111110100110
1111111110101100
1010
1111111111101110
1000
1111111101111011
1111111110010000
1001011101
1111010
1001011000
10001
1000100
1111101010100001
1111110001010010
1111110000111101
1111110111100101
1001100010
1111110111011101
1111111010000001
1111111011100011
111111011
1111111011001010
10101001
10010100100
11000000
1111110101011111
1111101110101011
1111110001100101
1111111000010001
1111111011101110
11011
11100
11010
1111111110111010
1111111100111101
111001111
1001010001
10000101
11000100
10001000101
1111110101101001
10011101011
1000101001
1111111110110001
1111110100001101
1111110100111010
1111100100101111
1111111110100111
101101011
1111110111101111
1111111010110110
1111111000111001
1111111101000100
1111111101110101
1111101101100010
1111101100011101
1111111000011011
1111111101010011
10110
1111111111100011
1111111110100011
1111111110011100
1111111011011100
1111110010110001
1111110000110011
1111111110111111
1111011000
10010100000
10000100100
11011011110
1100011111
1001001011
1111111001110011
1111100101111000
100100000
1000000011
110010010
11110101
1111111100101100
1111110011000111
1111110111011110
1001000
1111110000011110
1111110000001000
1111111100101110
1111111110111010
1111111110101111
1111111111010010
1000
1111111111000010
1111110110001000
1111101001110000
1111010110010110
1111100000110111
1111111000010001
1111110111010100
1111110001101000
1011011000
11011000
1111111011000111
10101010100
1111111000100000
11110011
1111110111001000
110111
1111111100001000
1111110001100011
1111111000101111
1111101010010010
1111110101001001
1111110001110011
1111110011000011
1111111011010011
1111111100110110
1111111110001001
1010
10100
10100
1111110110010111
1111101001101001
1111010110111001
1111010100101111
1111110000111101
1111100101011000
1111100011100000
1000011010
11011101
100011111011
10101001100
1111111000100111
1111111000011100
1111101111000100
1111110101010101
1111110110001101
1111101101101010
1111101011001100
1111101000010100
1111110011111011
1111110001111101
1111111000000111
1111111111001111
1111111101111011
100000
1111
10
1111111111111100
1111111100100001
1111101011010101
1111101101010001
1111011110100101
1111011011101101
1111010001111111
1111100101110110
1111011100111100
1111110111101001
1000011
1111111011
1101110110
110001011
110001010
1111111110000001
1111100111110010
1111110010101110
1111101010001111
1111110100101001
110010
1111111100001100
101110010
101100001
1111111101110011
10011
1101
1111111111101100
1000000
1011101
1111111010100100
1111111011011101
1111110011111100
1111110011100100
1111011001001111
1111011011010110
1111011111111000
1111010110100011
1111110110011110
1111110100000100
1111111110101110
1111110011000101
1111111111111101
1111110010111101
1111011110010101
1111101111011010
10011010
110101
100
1111111101101100
111000000
11001011
1111111110110010
1111111111101100
1111111111101001
110
1111111110111100
11001011
10001111
100000010
1001111011
1110111110
100101010
100011101
1010011011
1111110110110010
1111111001111001
1111110000010000
1111110100100011
1111101000100001
1111111110011110
1111110110100111
1111100000111110
1111110000011010
1111111111111011
111
101111110
100101010
100101100
10001010
1111111110110101
1111111111011111
11010
100
0
100001010
1111111011101110
10000
100010010
111111100
1011101
1111110111010100
10100000
1111110100011101
1111101010011001
1111111001000110
1111100001010100
1111100101010000
1111100101000101
1111111000111011
1111101101110010
110100100
100001000
1111111101110001
1111101011
11110110
100010000
1111111111111101
1111111110011001
110000
1010
1111111110111111
1101010
10010010
1100010
111001001
100101010
10011010111
10000101010
1111110010010010
1111110111100100
111100
10000011100
1111111101011001
1111100101100011
1111101000110011
1111100000010111
1111100101010001
1111110000100100
1111111010111100
100110010
1111111101001111
1000100101
1001100101
1111111101110111
1111111100011011
1111111111000011
1111111111111100
1110
11
1001
1111111111101100
11001
111010011
11101010
11111001
1001000001
1010011010
1110001010
10100010111
10111111111
10011010001
110111110
1111111110010100
101001101
1111111101111110
101001000
10011001010
1101011101
1110001100
1110010110
101110100
1111111111010101
101
1111111110100110
100111
110
10010
1111111111011001
11
10101011
1000100011
1101100010
1100100110
10000101001
10100101011
11010101110
11000001101
10101100001
11100010100
100011000000
11010000000
10000000110
1011111100
1001101111
101000110
1010100000
1001111100
101110011
1000010
1111111111111000
11010
1111111111010100
111
100100
1011
1111111111101100
1000
111
11110
1101001
1000001001
110110001
1000101
11100000
11100011
110110000
100100000
1001110
1100100
11101
10001011
101010011
110010
1111111111100000
110100
110001
100101
10110
10100
1110
1111111111000111
