101111
1111111111111101
1111111111011111
1111111111011001
11111
111
1111111111001100
1111111111110110
1111111111011011
1111111111100001
1111111111111011
1111111111100111
1111111111100111
1111111111100011
1111111111111010
1111111111110001
1000
111
11010
1111111111101110
1100
1111111111110110
11001
1111111111100111
1000111
100
0
100100
1111111111111110
11101
1111111111000001
1010
1111111111011010
1111111111100010
1111111111010011
1111111111100000
1111111111110110
100010
110011
10000
100110
11010
1111111110001010
1111111100001110
11010
11111
1111111111101111
10101
1111111111100110
1111111111100011
1111111111010111
1111111111101001
11001
0
1111111111110100
1111111111111000
11
1111111111101110
1111111111110011
101000
1111111111100100
110101
1111111111101011
1110
1000011
1111111111111111
10111
111110
1111111111100000
1111111101100001
1111111011110101
1111110100100011
1111111000110110
1111111111011111
10001001
101110
1000001
10111
100101
1111111111000101
110000
1111111111110001
100110
101
11000
1111111111001111
1111111111110100
1111111111111000
0
1010
1111111111111111
11010
10011001
100011000
111111000
1001001111
111000
1111111100001100
101011010
11011001
10
1110101
1010001000
111100010
11011100
11011000
1001111
1111111111111101
1111111110111000
111000
111100
101011
10001
1111111111001001
1111
1111111111101101
111111
1111111111011111
1111111111010110
1010101
10011001
100011000
1111111101011011
1001100
100101101
1111111011001001
100011010
1111111100100011
1111111010111000
1111111111100101
10000000
1111110101011101
1111110101100100
110001111
1001110110
111110100
111011010
10011111
1111111111110010
1111111111010100
1111111111100111
111000
1111111111111111
1111111111001010
1111111110111110
1111111111101001
10000100
11100011
10001000101
1010000000
1101010111
1110010101
11100100
101110011
10010010001
1111111101100000
10111110
1100000000
1111111111000111
1111111101011000
1111111001000011
1111111000111101
1111111110110111
1010001001
11100001
10100010
100111
10
1111111111111110
1100
1111111111111011
1111111111001001
111110
100010111
111100111
1111001011
10111111011
1011101110
1110100101
100100011
1001010111
1101111110
1010011101
10111000000
1101101101
1001001000
100100011
10000001000
1111110101011011
1111110111011001
1111111100001011
1101011000
1101111000
10100010
100
10011
10000
11110
1001010
1000011
11011110
101011100
1000001011
1101100011
10111001111
1010101101
1110110011
111110101
11101010
1010111111
1111110100011100
10101001100
1111001111
1011011010
1100001010
11010010
1111110000011100
1111110101011011
10100011
10011010001
10011001111
10100110
1100010
11100
1111111111000111
100101
10110
1010100
100110111
100000011
10011010
1000101001
10000011111
10100101
10101100
1000100001
1111111111010100
1111111111100111
1111111001001100
1101101010
10110110011
10000000
1111111111010000
10111111
1111111101101011
1111010
1111100101
10111111110
10100110110
11101111
1000001
1111111111111011
111010
1111111111010110
1001100
11010000
110100111
111000100
101001001
111100101
1111100111
1100000111
101110110
1111111000011010
1010010100
1111110101110100
1111111010011010
1111111110001111
1111110101110110
101100
10
1001101010
10000010100
1100101111
10011011101
10011011100
1111111010
110111111
10100001
11110
1111111111101001
1111111111011100
11001
100000110
101100111
111110100
1101111010
1100111001
1101001100
1110101101
11110
1000001
1000010101
1111110000001001
1111101101010000
1111101111011001
1111111100101010
1111110110100010
1010111
1011111010
11010111000
10100101001
10101100101
10011100110
1111111111
1000001101
11000110
1111111111111001
1010
1111111111100001
0
10010011
11010111
11011101
110011110
1100100001
10001111011
1111001011
10
1101111000
10010011
1111101010011100
1111100110010100
1111101101110101
1001100010
11010001
110110
10000011111
10110110000
10001000110
10001100101
10001100111
1111100001
111010111
1001111
1111111111000000
1111111111001110
100101
1011
1001001
11011
11110110
100010010
1010110100
10110011111
1010111010
1111000110
1011111100
1111101100010000
100001100
1111011001101100
1111111001101001
1111111010011110
1111111110010100
1000111001
1000000110
101001010
11111100
111001000
1011100
1
100100
10011000
10101
1111111111101111
1111111110110101
110010
1111111111001011
111110
101001010
11101001
1001101001
1111011001
10011000001
10111110010
1010011110
1111110000100100
1111111000011001
1111010111111101
11
1111110011010001
1111111111011000
101000001
1111111000101100
10111000
10000011
110110001
110001100
101000111
11000000
1111111110111110
1111111110010111
1111111111101011
1111111111011110
1111111111111110
1111111101111001
10100100
1000001001
1001001111
1100110001
10000101001
1110111000
1011101000
1100000000
1110100
1111110111010001
1111100110110101
111
100100010
11010010110
1001100011
100110
110101001
110010001
11110001
1000000
1111111110010110
11011110
1111111110011001
1111
11
110011
1111111101111110
1001001
1110011
1010101110
10001111011
1011100001
1111111110110000
1111111001000111
111000101
1001001010
1001000110
1111101001111110
1111111101111101
10011100000
1010001
100110000001
10011110101
1011100111
110010001
10110000
100001010
10000000
1100110
1011110
1111111110101011
1000
1111111111011111
1111111111111100
100000
111001
1101111
111111111
1011000110
11100001
1111111001110111
1111110011010101
1111111010110111
1111110110011111
1001111110
1111111011011011
1111110101111100
10101101011
10100110100
100110011001
10110010010
1100001001
11011001
10111111
100000111
1111111101001110
1111111000011011
1111111100111011
1111111101111110
111011
1111111111011001
1111111111100111
10001
110100
10001111
111011000
1010111010
1000001001
110100101
10010010
1111111001000110
1101110100
1111111100011111
1111111110111110
1111110110100010
10011011001
100011101010
11101001110
1110001101
1111111111101111
11001100
10010010
1111111111010000
1111111101100111
1111111010111011
1111111011001101
10
101010
101010
1111111111111000
1111111111110001
1111111111110100
100010001
1010101111
10100110000
1111010000
111011010
1111111010111001
1111111001100100
1001000100
100001001
1111110100110001
1111111011010010
10101101110
100010111100
111011010
11111000
1111110111101100
1111111111111010
101101011
10001110
101100
1111111100011000
1111111001101101
1111111110100110
101
1111111111111010
1111111111100000
10001
0
1110110
1011111111
1001010111
1000100000
1111111011111111
1111110011010000
1111111100110100
101000
110000
1111110110011111
1000010100
1101101010
1000000011
1111010000
1100001000
1111111000001100
1101111
10010110000
111100110
1111111111001111
1111111001111000
1111111010001000
1111111111101001
1111111111000101
100111
100011
111010
111010
1111111110111001
10000001000
1100001111
1000000100
1111111011101101
1001111000
1100
1111111111010000
1111111101100011
1010011011
1111111100010001
1111101001
1111110011011010
101101010
10110101
1111111001011101
100011110
1100111011
1001001100
100111101
1111111011010010
1111111101110101
1111111111010110
101
101
1001
1111111111111011
1111111111100001
1111111110001011
1001000100
1110010001
1110111001
1100110100
1000100011
1111110001100001
101011101
10000001011
10010110111
110101111
1111111111011101
1111110100000111
1101101100
1110001
10111110
11000011
111001111
1000011001
11110101
1111111011001101
1111111111100000
1111111111011011
1000000
100
110010
11101
1111111111001010
1111111101111000
1111111101010100
10000100111
10000111101
11001100
110010
1001110011
11011011011
10111110101
1010101110
1111111001110001
1111110111101110
1111101110011111
1111111011101111
1111111000110111
1111110111101010
1111111100000101
10101010
1010001
1111111110010110
1100
1111111111010010
1111111110111101
1111111111010011
1000001
1011
1111111111011100
1011
10100
1111111110010110
110001110
111100101
1111111110111001
1111111011010000
1000011
1001001111
1111110000111101
1111110101110101
1001011010
1111111101011111
1111110010000000
1111100101001001
1111111001100010
1111111111100011
100001101
1001110110
101110110
1100000
1111111111110101
1000
1111111111111010
0
1111111111100100
10000
1111111111111010
11100
10000011
101000001
1011001110
10000000111
110010101
1111111000101111
10000110111
1011010111
10000011000
10000010010
10101101011
10011101101
10000100000
1111111110001110
1111111101111000
1111111010111010
11010001
10111100
1011001
110
10011
10100
1011
1111111111110011
100011
101100
1111111111001111
101
1111111111100000
1010100
1001010
11000101
1111111101000010
1111111011011000
10110011011
1100001011
100011011
1011000
110011101
10000101101
1111000001
11010100
1011111
10110010
1111111111111101
10011
1111111111110010
1111111111001110
1111111111011110
10110
1111111110101110
100001
110100
1101
1111111111111100
1111111111110000
1111111111011110
1111111111110111
1111111111101110
100101
1111010
1100011
10111111
11011000
100101000
1010100010
101010101
101000000
11110
1010
10100
1011000
1111
1111111111111111
1111111111010111
11000
1111111111100000
1111111110111011
110000
1111111111111100
1001
1111111111110010
10101
1111111111101100
1111111111011001
1111111111001011
101101
1111111110110001
1111111111101010
1001
11001
11001
1000100
1001011
101111
11000
1111111111100011
1111111111110001
1111111111101110
1111111111110010
1111111111011111
100
0
1110
1000110
1111111111101110
1111111110110101
1111111111011111
