1111111111100011
101101
100111
11100
101
110
1111111111111110
11011
11011
1111111111100001
1111111111100000
100100
1111111111011111
1111111111011010
110111
1111111111100000
111111
1111111111100100
10001
1111111111110110
10001
11
1111111111111010
1111111111111011
101111
100111
1111111110101010
1111111111100111
1111111111100100
1000011
10100
1111111111110100
1111111111110011
110
1111111111001010
10111
1111111111101101
10010
1111111111101101
1111111110111101
1111111111011110
1111111111101110
101011
1111111110111000
1111111111100100
1111111111011010
100
110011
1111111111110001
111
1111111111111100
100100
1111111111100100
101011
1111111111110100
101011
0
1111111111100001
1111111111101101
100011
1001
1111111111111000
1111111111111000
1111111111101001
1111111111110010
1111111110011110
1111111110011101
1111111010110111
1111111001111010
1111111011111001
1111111010101011
1111111011111010
1111111101000011
0
101000111
1111111011110001
1111111101101111
1111111111000001
1111111111010010
1111111111011111
1111111110100010
1111111111110011
1111111111111000
1111111111100111
1000001
101011
100101
1111111111101101
111
1111111111010111
1111111110110111
1111111100111110
10000011
1111111111101000
1111111111001010
1111110111110110
1111111101010110
1111111111111011
1111110101100111
1111111100000111
110001101
1000100011
1111111011111010
1111110111010110
1111111110010011
1111111000011100
1111110100101010
1111111001101000
1111111010101011
10110010
10110
1111111111011101
10001
1111111111011101
101
1000111
100010
11101000
111111
110
1110001111
1011011000
11011100011
100000000010
10110011010
10111100010
11010000100
111110000
1011001111
1000110000
110110110
1111110111110111
1111110100101000
1111101001001100
1111100110010110
1111110001010011
1101101
1101010111
101000011
1111111111101111
10100
10
1011
1001011
1111111111110101
110011010
101110110
1000110001
110110000
11010001
11001001100
100001010010
1001100100
100010001101
1110010101
10111001101
10100011100
1111110110010010
0
1100110000
1111110010000001
1111101111101101
1111111110001101
1111110000110010
1111111001100000
101100100
1111111111000001
1111111101110000
1111111111101000
111100
1011
111111
100000
1111111001011111
110110100
10101011110
1101010100
10000110001
100101111101
100111000001
10000100110
11001101110
11000111010
11101001100
11001010000
100001000101
100011010101
10101110111
111010100
1010111011
1111110000100101
1111110111101101
1111111110000100
101111000
111101
1010100
110
1111111111110101
1100
110001001
1111111110110011
1111101110010010
111011001
10010011100
10001111110
1001001001
100000001010
11110001011
1111001000
11001101
1011011001
1000111101
11110100000
11011010111
10011110100
10010100000
10101010101
11111000101
1111111111101101
1111111011110011
1111110000000110
1111110110101100
1111111100110000
1011
10001
1111111111011000
1111111110010011
1100001
1111111011001111
1111110011100000
1000110100
111010101
10000000001
1111110011
11011111110
100111000000
100010001100
1011010110
10100100111
10011100110
101100001110
11011111011
101101001011
100001000001
1000110001
11010000011
10111011000
101101011
1111110111000110
1111111001111000
111000101
10110011
111000
1111111111100100
1111111101111000
10101
101100011
1111111101011111
10010110000
10010111011
1111000010
11010111000
11101010110
1110101011
10011011100
100011101000
11000111001
100100100
1111111111101101
10010011100
11000011111
1110000110
1111110100111111
111010110
100001111100
10010101111
10001100
10010110011
1010101111
10011100
10001
1111111111100111
1111111011110001
1111111110111110
100010100
110000
1010001111
1111110110111010
11111110
11000011101
10101010111
11010001011
10100101011
1100110111
1110000011
1111111110110110
100000001111
1101010101
100000010
10001110
1111111011100001
1111111101111111
1111111100000001
11100000011
10010100100
1010010111
1000000011
10111001
1111111111110111
10
1111111101101010
1111111101001100
100111100
111100
1010000000
1011101111
10011110
1111101010001010
1111111011000001
1000010000
1111111111111001
1011110111
1011110110
1111101100
1111111100111100
10010100110
1110010011
101000100
1101010100
0
1111101101
101001010101
100111001000
1100001010
1101101110
110101
1111111110111101
1111111110110111
1111111110010011
1111111011001111
1001111000
1101101010
1001010011
101011110
1111011110010001
1111101110100001
1111010000000100
1111010011010011
1111011010100101
1111011011001100
110100
1111111110110011
1111111000101010
1100000011
1111111010100001
11111010
1111111100001011
1010011111
10001100111
100010001101
10111011100
1010101110
101110100
1111111111011111
1000
1111111111001000
1111111111011011
1111111100011111
111101110
1111111001001011
1111100001100010
1111101110100110
1111101101100110
1111101101011101
1111010101010101
1111001111001110
1111010101111100
1111011110000111
1111111001100111
1111101100001110
111101
111010
1111101111000000
1010110
11110101
1111111110001100
1000000011
1101100100
10001
110011100
1110010
10010
101000
100101
1111111111101011
10011110
1111111111101010
1111100011010100
1111111010011001
1111110001110101
1111101111110111
1111011101110010
1111011011000100
1111100000101110
1111101100011110
1111101100100000
111011
10100111
1111110000101000
1111101010011101
1111111010100010
10000010100
1111111101101001
1111110000001101
1111111001010100
100100001
1111111011001100
10010011
101101
1111111111010000
1110
1111111111110001
1111111101110010
1111111110111110
111110101
1000101100
1001000
1111111101010100
10011001
1111110011110101
1111101111100110
1111110000000010
1111100011001111
1111110000010001
1111111100010110
100010110
1110101
1111110000101110
1111111000101110
1111110000001100
1111101001111011
1111101010001101
1111101100001001
1111111110110111
1111111111000010
1111111011101010
1111111110100100
1111111111100000
1111111110110100
111011
1111111111011011
1000000
1001100010
1001100111
100100001
1111111000101101
1111111111110000
101111011
1111110000100100
1111100011110110
1111111001100101
1111100110100111
100000011
1111011111111000
1111110101010100
1111100001111100
1111011011100000
1111011011111110
1111010001001111
1111110001101011
1011100
1111111001111101
1111111111010011
1111111001111000
1111111101101000
1000101
1111111111101101
1111111111111011
1111111110010100
1111111111010011
1111111010100010
111000011
1111110111100001
1111110000011100
1111101011010011
1111100100001110
1111100111111000
1111101101110111
110000011
1111101010110110
1111111101111001
1111111010110001
1111110111110011
1111110110100111
1111011001000010
100011001
1111110100001000
1111111110000101
1110100011
1000111101
101110111
100011100
100010
1111111111100011
1111111111101101
100101
1111111110011111
1111111111101010
1111111010100110
1000001101
10000000110
1001101001
1111110111001111
1111101010010001
101111100
1010110111
1111011010011110
1111101111111100
1111110100001100
1111101000001101
1111100101111111
1110101011
1011110100
1111111111111001
1100010011
10011101001
100110110001
1110001001
10001110
111110011
11110
1001
1111111111011001
101
1111111110110001
1011101
1101100010
10010100001
100100110110
1011011101
1000111101
11110000
1000110010
1111110111110010
10011
1111111101000101
1111111101110000
1111101010101010
1111111000100011
1110011
1101101010
1000011100
1011101110
11000111110
101001001100
10010010010
110000110
111110110
100101
1111111111111110
1111111111110110
1111111111100111
1001
10001100
1111111001
10100101001
100100100000
10101100011
101011110101
1010111100
1010110010
1111111111011001
100011101
1001100011
1100100100
10010100111
1111111011100101
1111110010100000
1111111000101111
10111111001
111101100
10010111001
11101011001
10100011000
1010110111
111110010
101100
0
1111
111
100101
10
1010111101
1100000000
11101011001
11010101010
1010111110
11010110
1101000101
1111111000011000
1111111011100100
1111111011100001
10001000011
10101101111
111011
1111110010011011
110110101
1011010000
10010100001
1110010011
1000000101
1010100011
111011000
11010111
1111111111011010
1101
1111111111111101
1111111111111100
1111111111100011
11111
11101000
1100101100
1110000100
1111101101
11001001101
10010101010
1101100
100110011
1111111100000100
10011100
10010011011
1111111000011001
1111110111110111
10000000001
1110110010
1111110110100101
1100110110
1111111111111000
1000100101
1010110110
100001101
1111111110101011
0
1111111111111010
10
1111111111011110
0
111101
10110011
1001111001
101100010
1101111010
10010000100
1101011010
10111001110
111110110
1111110110
10110000101
11100000
11011110
10001101000
1111110111
1111111010111111
11
10000100
1111110101001101
1000001111
1000100011
101101101
100
1111111111111110
110111
1111111111101001
1111111111011010
100100
111001
10000011
11100110
1111111100101111
11110110
10001100111
110111011
10101010011
10011010000
10000000010
100110100
1011001010
10000011100
11001001
10100101100
1110001110
100011010
110010100
1111111100110011
1111111101100101
10111010
111001
100011
1111111111110000
1111111110110000
10001
111
1111111111110101
1111111110110010
1110
10100010
11000
1111111110111111
110010101
1011011111
111101011
1111110110001010
10011010010
11011010100
101011010101
1100001001
11110111010
110100101100
11100101010
10111010101
1100001011
111101101
1111111111110001
1111111111000011
1001001
1111111111111011
1111111111101011
1111111111010011
1111111111011001
1111111111110100
1
1111111111110000
1111111111110110
100111
11000100
100010011
110001110
1100000111
10010011000
101111111
10000100011
11010011101
11111011111
10010001100
10010011011
10001110111
1111010100
1100001000
10001110001
10000110000
11011000
1111111111111111
0
110011
100
1111111111100101
1111111110100011
1111111111110111
1111111110110100
1111111111110010
1111111111111111
1111111111001100
101001
1010011
10111101
110100
10100101
111101
100100110
11101001
100000100
1001101
1010011
10111
1111111
100011000
1111111111011010
10001
1111111111001110
10100
1111111111110000
1111111111101010
1111111111100010
1001111
