1111111111101111
1111111111011101
11110
101011
1001001
1111111111110111
100100
1111111111111101
101001
1111111111100111
111111
11111
1111111111100010
10111
111
100
110001
1111111111010111
101
1111111111001000
1111111111101000
100100
11110
11
110011
100101
10001
100011
101010
1111111111010010
111001
1111111111111010
10110
11010
1111111111111111
10100
1111111111101011
1111111111111001
1111111111101011
1000101
1111001
1010
1111111111011111
1100110
110011100
1011110
1111111111011110
1101
1111111110000100
1111111111001000
1111111111110110
1111111111101001
1111111111011001
10101
101110
1111111111011111
10000
1111111111101000
10000
1100
1111111111111101
11111
1111111111111100
1111111111100111
1111111110110000
1111111101111011
1111111110011110
1111111101111011
1111111101111010
1111111010011011
1111110101110100
1111110001100100
1111111101110000
1111111011000011
1111111010011111
1111110111111110
1111111110011001
11101
100110
1101011
110100
1111111111101010
1110
10010
1111111111000010
1000000
1100
0
1111111110101100
1111111101101100
1111111011010110
1111111011110111
1111111111100010
1111111100000111
1111111111100001
11000101
1001000000
10011101
1111111100010110
1111101111011010
100000000
10101001
1111100
11111010
100111001
1111111101111010
1010
1111111110110101
111001
1111111111001010
1010
101010
1111111111110010
100011
1111111111100011
1111111111100100
1
1111111100101010
1111111011101000
1111111010000101
1111111010011101
1111110110111000
1111111011001101
1000111111
1011011
111011010
1111111010000000
1010111
1100001010
1111011111
1111111100111110
1111110101101001
1111111010111000
1111110101111001
1111110111010010
1111111001000110
1111111100001110
1111111110011010
101010
1
1010011
1111111111111111
1111111111101011
10011
10111001
1010011
1111111110101100
100010011
1111111111111000
1111111101110101
111111110
1111101110110011
1111100111110111
1111111110100001
1111111011110000
1111110001111101
1101101010
11110110
100100101
100111
1111111000011100
1111111011001101
1111111100011110
1111110011101100
1111111000110101
1111111101110111
11000
1010
1111111111110101
1111111111000101
1000
1111111111101010
1001100
100101010
1011011011
10100111000
1010111110
10010100
10001101011
1111111010110101
111000110
1100010
100010101
10000101111
101010011
1110011010
10101011
1111111100011101
1111111011010010
10000101110
101111001
1111110111111101
1111111101000110
111
11001
111011
1010
1111111111111101
1110011
10100111
101001001
1000010011
1001010101
1000010011
101011100
1100001100
101001011
100100101
1111111110001010
1111101111011011
1111110001001001
1111111111001011
1111110110001010
1101
11011111110
111110001
1111111000101011
1010000101
11000111
1111111001010001
1001
11010100
1001100
110111
1111111111110000
10101
1010100
0
10010101
1111111111100101
1111110110111011
1111111101110001
10011101
1111111110100010
1111111110001000
1111110111111111
10010111101
111110010
1111111101111001
1111110101011110
11000111110
1110100111
110010100
1111000101
100000001
1111111101100110
10111011100
1000110100
101110110
110011001
10010011
1000010
100
1111111111101010
11101
101101000
1110110010
110101110
1111111001111100
1111011
101010111
1111111000000111
100011111
1111110101100010
1111110110111010
10000110111
111110
1111101111001000
1111111110100001
111101011
1111111111101111
100101001010
100010011111
10100001000
11101011110
10011011011
10010100101
101000100
1111101
1111111111110010
1111111110110011
100011
101011
10010110
1111111010111101
1111111101000101
100111011
1100011
1011000
1111110110000101
1101001110
1111111011010001
1111101110101100
1111111011100000
10000100110
111001000
10100100110
111000100
110100011
110101010
11010000100
100001100100
11100111101
10111110011
10010100011
10010101
100001010
1111111111111100
101001
101011
11000
1111111111000101
1111110000000011
1111100110111110
1111110010000011
1000010
1111111110111100
1011001
1111110101011110
1111101000110110
1100
11000110111
11110001000
1111101011110110
1111100110000011
1111110110100100
1111110100010110
1111111101100010
1111110000110110
1001100110
11000111
10111001010
10111101110
1011010001
100110101
101111
1111111111001001
1111111111011111
1111111111100101
1111111011011011
1111101000100110
1111100101000101
1111100001011000
1111111110101000
1111110011001011
1101011
1111111010001110
1111110101010111
1001110010
11111100111
100001000011
1111100000110001
1111100101110110
1111101111100001
1111010111110001
1111011000101101
1111110101010001
1111111100111101
1111110110000000
101011010
10010010101
1100101001
1011011
1111111111011111
1101
1111111111101111
100101
1111111010111001
1111100110001010
1111101010110011
1111101011011111
1111110000110010
1111110000001001
11011100
1001100110
1100
101110101
10000100000
1011101101
1111111000100101
1111110110010110
1111101101011111
1111011110010001
1111011000101101
1111101010000000
1111111000011100
1111110011010110
110100011
1101101111
111001110
1001100
110000
1111111111011111
1111111111001010
1111111111101100
1111111010111001
1111110011100110
10001110
1111111010110000
110001110
1111101011010111
1111110010111110
1111101011010100
1111110011111011
11110011010
10100111010
1100000010
10100100000
1111111101011110
1111100010010010
1111101001111110
1111110101010001
1111110101011000
1111110110011111
1111101111001010
1111110011000111
110101100
111001111
100000
100010
1111111111011001
1111111111011000
1111111110100000
1111111010110100
11101011
1111110011
1001011111
1110110000
1111111011010000
100000
1111111100010000
1110000011
11110110010
100000010000
11011110110
1100101011
1111110010101001
1111110001101011
11111001
1111111100101111
1111101111011111
1111110001110001
1111101111110001
1111111101001011
1001111100
1000000111
110101
1111111111111001
101001
1111111111110110
1111111101001001
10000010
1000101110
10101001
1111110111110110
1111111011100100
1111110101100001
1111110100
1000101100
10010011111
10001011101
10101010100
101110010
1111001
1000111
10111011
101011101
110110100
1111101100101100
10011101
111001000
1111111110001000
1010100
101110100
11111111
100110
10
110000
1111111100111110
10010101
1001110111
1001000010
1111110001110101
1111111011111011
1111110110000100
110010100
1000011111
10000010001
100010011100
11110111000
1111100101100101
1111011101111001
1111110010001110
1111111000111110
110100111
11010011
1111110111010101
10001010000
1111111100000111
11000000
11110101
101011111
10101011
1000101
1111111111001010
1111111111000001
1111111101111001
1111111110111011
1111111110011010
1111111111110101
100100
1000000010
1111111111101110
1111111001110100
1010111001
10111100000
101011011000
1101110011
1111010000010111
1111100110000110
1111100100101010
1111101101000000
11111111
10011111
1111101101101000
110010111
1111111011010110
1111111011101110
1111100110
1010110100
10100000
110110
11101
1000
1111111111100101
1111111101100011
1111111110011100
1111110111111110
1111110111000101
10101
1111111100110101
1111111100111100
10000111101
10111010010
101111110011
1111100001
1111011100011101
1111100010010101
1111101111001011
1111110010011001
1111111011100101
1111101111011101
10111010
1011100011
1111111010011000
1111111111110101
101111
10001110
1001001
1100
1111111111110110
1
1111111111000111
110100
101101010
1111110110101111
1111110110111001
1111010100
111000011
1111111101110111
10111010111
110101111110
110100010101
1011010011
1111000111111100
1111101110001000
1111101111010001
1111101111001101
1111011001000001
1111100100110010
1111111011101111
1111110110010001
1111100111110001
1111111000001111
1111111000001100
1111111110011011
1001001
1111111111101011
100001
10000
1111010
101101
1111111101110011
1111101111111111
1111111010111011
10100010110
1010001111
1100100111
100001011111
101011100001
11001001011
1001111001
1111100001010110
1111101011101001
1111101010100110
1111110001100111
1111101101001100
1111101100111101
1111111001001111
1111110010100000
1111110101001011
1000001
1111111100111011
100010000
10010000
110101
1
100010
10000110
1111111110110101
1111111110000001
1111111001010011
1010000110
1011011101
1001101001
100001100001
11101110110
1001000011
1001000010
1111111111111010
1111100111110110
1111110011101100
1111100110101110
1111101100100110
1111101101011100
1111111101100110
1111110100001000
1111110101100011
1001001
101111
101101
1100
1010
1111111111101000
1111111111111110
110101
1011101
1111111111010111
1111111110100101
1111111111110000
1000000101
10100110111
1111011100
11011011111
1011001111
1111101010
1111111101100100
1111111111011001
1111110011110100
11000010
1111101101110111
1111101010111010
1111111110011001
10110
1111101110001010
1111111100011111
1111111101010100
1111111110111010
1000110
1100011
1000
1000
1111111111010000
1111111111100001
0
1001001
100110100
1111001
1010101010
10111101101
10110111011
1000011111
1111110111110011
1111110111110000
111011001
111010000
11011011000
11110111
10110011
1111110110011001
1111110011100111
1111110011001000
1111110000111011
100010011
101111100
1111111101000110
100100001
1000001
1001001
1111111111110110
1111
1111111111101100
11101
1111111111101101
10010100
110110
1100000
1011101000
10001111011
1110000101
101001101
111000011
100000001
1111111110010101
1111111010010111
1111111111001011
1011010
1111111011101000
1111101010111011
1111111001001100
1111111001001100
1111111100000110
11110011
11101011
100000101
11110
101001
1111111111111111
1111111111011110
11000
11011
1111111111101001
1111111111100110
1111111011100011
1111111010011101
1111111100011110
1111111011011111
1111111010000001
1111111101000101
1111111101100111
1111111011011111
1111111100111010
1111110110111001
1111111111011000
11010001
10010
1011001
10001010
1111110111000111
1111110100001001
1111111100011111
1111111111001110
1111111111011111
1111111111100100
1111111111111110
1111111111111111
11
1111111111110110
1111111111111111
10
1111111111111001
1111111111011110
1111111111110111
1111111111100101
11111
11111
1111111101101110
1111111101111010
1111111110110100
1111111110101000
1111111110111100
101110
1111111111101101
1111111111001111
1111111101101000
1111111110101101
1111111101110000
1111111110111110
1111111101000010
1111111111111100
1011
1
10
11011
