1111111111110000
1111
1111111111110100
1110
100100
1000110
1111111111111101
10001
110001
1111111111111111
100100
101000
0
11001
11101
1111111111010011
11110
11101
1111111111011110
1111111110110101
111000
1000001
1010
1111111111101000
1111111111011010
0
1111111111111100
1111111111100010
11000
1111111111001111
1111111111001010
111
111
1111111111010001
1111111111011111
1000000
1000111
10011
111111
1000100
10001100
1001110
1111111111110001
1011111
100010100
1110000
11000
11110
11000
1111111111111000
10000000
1111111111101100
1111111111101110
1111111111101111
10010
11110
1111111111111111
0
1111111111111100
0
1111111111100111
11011
110001
1001000
10010011
1010010
10011001
10110111
101110001
110100010
100101010
10011110
11000001
111001
10001010
110111
1000
1111111110111001
1111111111100100
1100000
1011011
1000
1000
1111111111010010
1011
1010
1111111111111010
1111111111011010
1111111111001100
10100
11100101
101010111
110101000
111001100
11010101
101111000
1111011101
10011110111
11000101000
100110010010
10011011110
101011110
10010101
11100110
11110100
1111111111100011
1111111111100001
10010000
10101011
11111
1001
1111111111100011
101011
1111111111101001
1111111111110011
1111111111110100
100100
1001
100011010
111010111
1000101111
1011101001
1101010110
1011001100
1101000111
10101000100
11001011011
11100111000
10011011111
10111000100
1110101100
1010011011
110001111
1111111011010001
1111111011110010
1111111001110101
1111111011000001
10100010
1001010
10110
1111111111110011
1111111111101010
101000
1111111111111011
11010100
11000101
1001111011
1011111001
1111111110111000
1000100010
1001001111
1111111001011011
1111111010100011
1111010001
1111101010
1110111
11000100000
10011111101
100011100
1001110010
1010110100
1111111111100110
1111111011011011
1111110001100010
1111110101111100
1111111111000110
1011000
1111111111101110
1111111111111010
100000
1111111110101010
1111111101110111
1111111100000110
1111110111000100
1111111111110111
100010
1111111101000100
11001111110
100001110
1111101111110111
1111110001101110
110010111
1111111111010110
10000000
1100111
1111111100111010
1001101111
1111100000
1010111101
1111101100000010
1111101101101010
1111110010101111
101010101
100111101
11100111
1000000
1111111111100000
11000
1111111100010000
1111110101110010
1111110011010011
1001101
1111111000000101
1111111110101001
10101101000
1111111111100000
1111111101100010
1111101110010000
1111111001001100
1111101010101111
10110000
110101011
1111111001010101
1111100111010000
1110110
1111110011101010
1111110010010110
1111111010111001
1111110001111000
1111111011101111
1011001100
1001010110
100001001
1
1111111111010111
1111111111011100
1111111011100000
1111111001000100
1111111000001010
1111110010000110
1111100010101001
1111110101010010
1111101110110001
1111111010001111
1111110011110111
1111110110110101
1011101000
110001110
1111110111100101
1111101111010010
1010110110
1111110001110011
1111110001110111
11101010
1000001000
1110101
100101000
1111111010110101
10000000100
1101111101
1010111
100100
101100
1111111111100001
1111111111001010
1111111100111001
1111111000011111
1111101110000001
1111100100001011
111100001
1111111010111110
1111111101001001
101000101
110100110
101000
111000
1111110101111001
1111111101010110
1000010101
1111110110110111
1111110011011100
1111
10000101001
10111101
1111111010011100
1111111100101111
10110010110
1010000101
11111001
100010
1111111111111111
1111111111111111
1111111110000010
1111111100010101
1111110011011111
1111111110000100
11110011
1010100110
1111111100111100
1111110010101110
1111111110101000
1111110000011110
1111110101010111
110000111
1111110011111110
1111111101000110
1111110011000010
1111111110000001
1111111101111101
1111111110100111
10100111000
1011111100
1111111111101101
110101001
1101101010
10100011
111000001
1111111111101010
1
1111111111101001
1111111011001111
1111110101000100
1111110101000111
100000001
1111111110000111
10001101
110100011
1001110010
1111111001001101
1111111011001000
1111111111001110
100110010
1111111001000010
1111100010111000
1111111000111010
100100111
11011011
100011101
1111110111001001
100101001
1111111011011001
1011110101
10010011100
1111101000
1100001010
1111111111010011
1111111111100010
111
1111111110111011
1111111001111000
1111110111000011
1111100100
1001001
101111010
1111110111110110
1110100010
100101
1111111011110101
1111110000100011
1111101000101110
1101110
1111100011001110
1111100101011110
1111001010
1000100001
1001011110
1111111110011000
110111001
1111111001001100
10011001111
1101010011
1111010101
11010110
10110
1010
11
1111111110101010
1111111111010110
1111110011110110
11001011
1111110111111101
1111110001010111
1111111110011011
1111111001111001
1111110101100101
10010000
100010001
10001111011
1010001011
1111110100100110
1111110111011010
1111111111000111
110011100
10111110100
1101011
1111110001000000
1111111111110100
11010000000
10100000010
110000001
10000011
1001101
1111111111000011
110010
1111111110110101
1111111110110000
1111111011001001
1111111011111011
1111111010111010
1111110101100010
1111111100111010
1111111011111110
1111110110111001
1111111101000010
1111111110001111
1000101100
111011111
100111001
100000000
100100010
1001000001
1111110010010110
1111111111101110
1111110111101010
1111101101101100
1111111000001111
10010100110
100101010
10101000
1111111110111010
1111111111111100
1111111111110110
1000
1111111111111100
10001111
1011011100
1000110101
10100110
1111111101010000
1111110001101101
1111101111110100
1000000010
1010111110
11000001001
100111010
1111110111111011
1111111010001011
1111101000100011
100011111
1111111100000101
1111111100101011
1111110010000101
1111101111100110
1111111111011110
10011100001
1111100001
101110010
101010
1111111111101111
11101
1100011
100111110
1001110
1001101100
101100001
10101100
100001001
1101110000
1111110010000001
1111110111011111
10010101111
11101110
11010110
1111111011101001
1111110110110100
1111110001001010
111001001
101101
1111100011010000
1111110101011101
1111111011111000
1111111011010000
1011110011
10010010010
1010011011
10001
1111111111100010
10
1101010
110011000
100000
1010011111
1111111001111100
1111110101000011
1111110110011000
1011111110
1111110110100010
1111111010011010
11011010100
110100101
1111110001110100
1111111010001000
1111101001000101
1111110000110001
1111101010000111
1111111010110011
1111111000011101
100
1111111110010000
10001011
110101
1000101011
11000011
1110011
1111111111110011
100000
11110
110101001
1110111
1000110101
11011110
1111110111111100
1111111111101011
1010110011
10011110111
10110011100
11001001100
100001
1111111010100001
1011100110
1111101110001100
1110111
10000001
111011101
1000101000
1111010001
11101001001
10100110111
111001000
100111001
1111111110011101
1111111110111111
1010
1111111111111111
1111111111111110
1011011
10111001
100001111
1000100101
1111111010010111
1111111101110100
11100011111
100011000001
10000111011
1111111100100110
1001101100
1111111101011111
1111111001110010
1111111110100110
1111100001
100010110100
11010101111
11010110000
11010010100
101001000000
11101011011
1001010101
1111
11100
1111111111000001
1111111111010010
1111111111111110
1111111111010100
11010101
111001101
101110011
1111010010
11000010101
11101000001
11011101011
11101001110
0
1111101010111111
1111111110010000
101101001
1111111000001101
1111111001010010
1111001110
110011110100
101100011011
11001110010
10101011001
10111100001
10010101110
11101000
1111111111101111
1111111111111001
1111111111011100
10000
0
10011000
101111001
111100010
1100010101
11010011100
101011000101
100110100010
10010000110
1111111100111010
1111110100011011
1111010101100011
101110001
1001001011
1111110101110111
1111111111011110
10011000100
100011011010
11011100101
111100
10001110
1100001110
1010111010
10110010
110
110001
1
1010101
11100
1011101
101101110
1001100001
10001101000
11101100100
101111001101
100111101011
1110011101
1111110010000010
1111111001100101
1111100111100001
1111111101110110
1111110001000101
1111110111101100
1111101111000001
111100110
11110000010
1110000101
10110001001
10010000100
1100000001
111100000
11101010
111010
1111111111111001
1111111111111010
1111111111111111
1001
10010110
10010100
1011110101
10100110110
11111101011
101101101000
101011111000
1111111110100011
1111101111110100
1111101110100010
1111100000001010
1111101001010101
1111101011010100
1111110011000001
1111111111001001
101010010
10100010101
10111011000
100100011001
1111010111
1000110110
101110011
101111100
1010011
10000
1
1
1111111111110110
10110100
10011000
1011010100
1111100100
11110110101
101100010000
11110000101
1111110001001111
1111101111000101
1111111011010001
1110101110
1111110101100110
110001010
1001000
1111111010111001
1111101001011101
1100101010
1100101000
1010010110
101011111
101111110
100011000
101010011
1001000
1
1111111111110100
1111111111100111
1111111111011101
1001001
10000111
111011011
1100101001
1010110111
1111001110
1011000100
1111110111011101
1111111100010000
100011
101100100
111010010
1111111110000100
1111111101011110
1111111110100001
11101011
11100111
1100100010
111110100
101001111
10111101
101011101
10011110
1111111111111111
111000
110110
101001
1111111110101110
1111111111000101
101010
1111111111111110
1111111111010110
1111111110111011
1111111010111110
1111110111010110
1111110110011100
1111111110011010
1000100
1010011111
111110111
1111111100001111
1111111000100011
1111110011001001
1111111101001110
1010100
10010010
11000000
10001
100100
1111111111111100
11001
1
101101
1111111111100110
1111111111101010
1110
100001
11000
1111111111100101
1111111111110011
1110
1001011
1001001
1111111111011111
1111111100100000
1111111111100011
1111111111011111
1111111110010001
1111111101010011
1111111101011111
1111111101101100
1111111101100000
1111111110101101
1111111111100100
100011
1111111111001101
1111111101101011
1111111111001101
1111111111111100
10010
11011
1110
