1111111111110101
101010
1111111111110001
11110
1000001
11101
1100
1111111111100010
1111111111101110
1111111111110111
1111111111100001
11
100111
1111111111010100
1111111111010101
1000
10011
1111111111110010
1111111111110111
1111111111110110
101001
11001
1111111111110111
10110
100100
11100
11011
1111111111100111
1001001
110011
10101
100100
1111111111010001
10111
1111111111111001
10001
1111111111011111
100100
101001
101
101011
11001
1111111101110010
1111111100000000
100001010
1010000
1111111111110011
1
1111111110111110
1111111110110110
1111111111010110
1111111111100100
1111111111101111
1110
1111111111110001
111010
1111111111010011
1111111111011111
1111111111101010
101000
110110
1
1111111111010011
1111111111100110
11110
10011011
110000
101101
10000011
1111111110101110
1111111111010010
1111110011100000
1111111000000000
1111111010101101
1111111001001010
1111111000110111
1111111100111011
1111111100100011
1111111110010010
1111111111110011
1011
10110
10001
11110
1101
100110
1111111110111100
101000
100110
1111111111110010
100000
1111111111001110
110000100
111111000
101101011
1010011110
1101010010
1010000011
11011101
1111111001001001
1101110110
101010100
1111111111100011
11011011
1111111110011001
11101100
11001
1111111101111111
100111
1111111001111001
1111111111110101
1111111110111111
0
1111111111011100
1111111111010011
10
1111111111111001
1000100
1010110
110110100
1100001111
10110001001
11010111101
11000000000
11011010011
10001100
1111110111110011
11
110100110
1011100001
1100111100
1110100001
11101100
10001101001
1111111001
1111101101101001
1111101110011010
1111110110100010
1111111110010100
1111111111111111
1111111111100011
1000100
1111111111111010
1001
10110011
1010111
100110110
1100000101
10010111000
1110100110
10100110110
10010100111
1111110010001000
1111111110111101
1111110011000000
100001110
1110111100
1111111101011001
100000010101
10111011100
1101010011
10000101100
1101110111
1111111001010000
1111101110011011
1111111001101000
1111111111000000
1111111110010010
1111111111111111
0
1111111110010110
1111111110101110
10000100
1011100
1000100011
11001011011
100001010110
11010000011
1000001011
1111111100001001
1111110101101100
110
1111110101011011
1001110000
11110001110
10101011
0
11010110
101010101
1011011100
1111111110111010
1111101110101000
1111011110111011
1111101011110010
1111110110001001
1111111011101010
1111111111100010
1010010
1111111011110010
1111111100001011
1111111111011011
101010101
11111111
1101100100
11001101000
1011011010
1111111111111110
1111110111011110
1111111011101101
1110011000
110110101
1110110010
11100110100
1011001101
1000000101
1111111000000110
1111111010010111
1111101001100010
1111111110011011
1111101110110101
1111101001111001
1111110100110001
1111111010000011
1111111111100001
1111111111111110
1010001
1111111111011000
1111111100111110
101111
101100010
1111111101100011
111100001
10100101011
1010010
10100100000
100010001
1111111010111010
1111101100001111
1111100110011010
11011101
10000010010
1001110001
1111111000110101
1111111011011110
1111111010110111
1111110000101011
1111110011111010
1111101101001001
1111100101101011
1111101111110011
1111111101000101
1111111111011101
110000
1111111110111000
1111
1100101
100010101
110000001
1111111110110110
111100111
100000010111
10011100111
1010001101
100000101
1111111101011101
1111011011100100
1111110001001010
101000
110011100
1111110101100000
1100011111
1111110001100001
1111100011010011
1111101101111110
1111100110011011
11000100
10100
1111101110110101
1111111001000110
1111111110110101
1111111111101111
1111
1110011
11101010
100101100
101001101
10000100100
11001101100
11110011010
110101101
1111111001100010
111101000
100111
1111110111000000
1111110001101011
11000010010
10010000101
11011010111
1100101100
1111100111111011
1111100100111100
1111100011011100
1111110000001110
1111110000001100
1111110101000000
1111100101111110
1111111110000011
1111111111001001
1111111111100100
10110
11110011
111001001
1011101010
110110001
10011010000
11001010100
1001100010
1001101111
10010001001
100101001010
100000011101
1100000000
1111110111000010
111101111
101000011
10111001110
1111111101011011
1111110011101100
1111111101000011
1111101100100010
1111101111001011
1111100000000010
1111011101101000
1111101010000100
1111111011000110
1111111110010001
1111111111111011
100101
1111111111100011
110101000
1011001111
10010100010
11101101111
1110010111
10000110111
1111111110111111
100110110
100101
111010111
1111111001101100
1111101011111010
1111111001011110
1111111101100100
1111101101111111
10011101010
101001101100
10101010101
1110001011
1000010111
1111110110100100
1111111011010001
1111111111110101
1000011
11110
0
101000
10010100
1100101
1110001101
10101011010
10111101100
111101011
1111111010111101
1111101100111110
1111111111111111
1010001111
1111110101110101
1111101100010011
1111100101011000
1111110000110001
111011011
1111101111101111
100001100110
11111000100
100101001110
11001011011
10111011
100001100
1010001111
11000100
10001010
10100100
1111111111101011
1011
1111111111100101
10101111
1000101111
1000001100
10010000110
10111000000
10000011
1111111000010010
1111111001111110
110111101
1111111111110110
1111110111000110
1111110110110010
1111110000101010
110000010
111110000
100000001110
10101101101
11100101100
10000100110
10000101001
10001111101
1111011110
100100001
100000101
0
10
10
1001011
10010000
101110011
1111111111000010
1111111011011101
110110000
1001110
1111111111100010
1111101110111110
1111111001111110
1111110100011010
1111101110011001
1111100010100110
1111110011100110
1111111111000101
1111110110111011
111010011
1100110010
10100000100
10110011010
10011001101
1101000101
1101000001
1000010011
100100011
1100101
1111111111110001
1111111111000101
111111
10110100
1111111110011010
1111110011000100
11000110
1111101001
110001101
100111011
10011011101
1111111011100011
1111111111011110
1111111011100101
1111101011111010
1111110010000000
100011101
1100011001
11010101
10011010011
11110001000
10111111000
1111010100
10001001010
1111000010
1001000011
100100001
1111111111000101
10101
10101
1011001
1111111111100111
1111111010100100
1111111100000010
1100001110
101111101
100000011
1111111001001001
1111111000100100
1000111
111110010
1111111010111101
11010000
1111111001001000
111011
1000011010
1010011110
10101110000
11011011100
10111011101
10100100000
10000101010
1111000110
1000110000
100000001
11111
100110
10000
1111111111011001
11111110
1111111011111110
1111111010110100
111000100
1001100
110011
1001000001
1000011011
1111110010011100
1111111011111011
1111110100100010
1111100111111100
1111110100010001
100100001
1111111111001101
1001111001
1011000101
11110100111
11110001010
100001010011
100001011011
10100001011
100001010
1111010
1000000
10001
1111111111110100
101100
10001001011
111110010
10011
101010001
1111111100010101
1111111110111100
1111011110
10101010
1111111010001111
1111101001100111
1111110011101100
1111110001011101
1111101111001001
1111100001111111
10010010
101101011
11001110
100001111101
100001011110
11110111100
10100111100
1001110100
110100
110000
1010
110011
1111111111011001
101011
10110011001
10011110111
111100110
110001010
1101011
1111111001101000
11010100100
1001010100
1111111111001001
1111111000010110
1001000000
111011001
1111100010101001
1111110001001110
1111110110100100
1111110111001000
110111011
11010011101
11010000101
10110110001
1111101011
1011100100
110000000
11000
10101
1111111111100100
0
1111111111101111
100001110
1000100011
1011011110
1010010010
1111111011100000
1110001
1111111111101100
1111111000100010
1111111101000100
1001101001
1011001001
10110111000
1111111010110110
10001111000
1111111001100001
10000110010
11011010000
11110011000
11101111000
10001111101
1000011011
10001110
1111011
10101000
100000
10111
10010
1111111111110001
1111111100011110
1111111111001000
1011111
1011011
1111111001100110
1111111101111100
1111111111110011
110010001
101000001
1111111010001010
1111111101101111
1010111000
10011010100
101111110
101010101
10101010000
10100011100
11011111101
10101111100
1010001110
10000001
1111111111011100
10111
1111111111101001
1111111111110001
1111111111010011
100010
1010110
10000110
1111111110001111
1111111010011110
1
1001111100
10111001
1010010
1111110100100001
1111111100110010
1111011111110111
110111000
1111110001100000
1111111011101100
100100
1111101000
10111111110
11000001011
11000010100
10011001101
101111011
1001110
1111111111111101
1111111111110010
1111111111011000
10100
1111111111101001
1001
101101
10110011
1000101111
110010000
1010010001
1111101
100000110
1111101101101011
1111110100010000
1000101100
101111
1111111001011100
110011100
1111111000111000
1010101100
10111110110
1001000111
1001010000
1110000111
1001100111
10111010
1111111101111110
11101
110111
1111111111100001
1111111111101111
100
1111111111011100
1111111111110010
1111111111011001
10101001
1001101
110000011
1000110
100001111
1111111010001100
100111111
1111111110010011
101100
1100011010
110111111
1010100001
111011110
11110001
111011000
1111111110110011
1111111111110101
1111111111101101
1111111101111100
1111111111100101
11111
1111111111100010
10100
110
1111111111011100
1111111111111010
110011
1111111111101000
1111111110111010
1111110110010110
1111110101001110
1111111010110010
1111111011110010
1111111101110100
1111111101111100
1111111100001101
11010111
11011111
1111110011010011
1111110110111001
1111111110000111
1111111111100010
1111111010101010
1111111100101110
1111111110101010
1111111111001010
101000
1111111111011100
100110
11010
1111111111011110
1100
1000
100
1000
10000
110010
100
10000
1111111111000010
1111111111010011
1111111111101101
1111111110101010
1111111100100101
1111111011001110
110011
1111111100110001
1111111001101001
1111111110111101
1111111111110110
1111111101000111
10100
1111111111111111
111101
1110
1111111111001011
10100
11100
1111111111101000
11011
