1111111111111111
1111111111100000
100
1111111111111101
11000
110011
1111111111111110
111011
0
1111111111011000
1111111111110101
1111111111000110
1001
11010
1111111111111101
1001
10000
1111111111101111
1011
0
1111111111000100
101000
111
1111111111111101
100011
1101
1111111111110101
1111111111001100
1000000
1111111111110000
1111111111110100
1111111111110111
1000001
11110
110
1111111111011011
1001
100111
110010
10001
101110
1111111111110000
1111111111111011
1111111111001110
1111111101001001
1111111111001111
10110
1111111111101000
110010
11001
1111111111101110
1111111111111100
11100
10000
1011
10010
1111111111010010
110
1111111111111010
10111
1111111111110000
1111111111110111
1100
1111111111111000
111011
110100
1001101
11111110
1110110
111001
100000000
1100
1111111010100111
1010110
100111011
10111010
1111110
10101111
10000001
1111111111100110
1111111111001101
1111111111011110
1001101
10001
1111111111010111
100110
1111111111100100
1110
1111111111110011
11100
100011
101
1111111110000000
1111111110110000
1111111111111010
1111111111110100
1111111101000000
1111111100011011
110011001
101111011
1111111101001111
1111111110000110
1010011000
10111000
11001100
101001010
11011101
100001
1111111110000010
10101
1111111111000100
11110
1111111111111101
11110
1111111111010010
1111111111011001
1111111111001100
1000110
1111111111101011
1111111010001110
1111110101111000
1111111111111010
1111111101111110
1111111100000001
110
1111110011100011
1111111101001100
1111111001000001
111011010
111
10101001101
1110001111
111101010
1101110011
10011010001
1000111000
0
1111111111111110
1111111111011000
1111111111000101
10
1111111111000111
110000
1000100
0
1111111111010101
1111111111101010
1111111110101010
1111111110010010
111001110
101000011
100000001011
10111101101
1111111000110010
1111111101001111
1111111100101010
1111100
1011110100
1111111001011100
1001010110
1000010101
1010000101
10101110000
10010000000
11101100
11000001
1011110
1000111
1
1111111111110100
1100
1111111111011110
10001110
1111111101101101
1111111110011100
1111111100111101
1000111
11110111
1100100000
1111110100010111
1111111101101111
110001
110100001
1011010101
1111101110001111
10110000
1111110111101100
100111111
11001001
1111111100101011
11110111111
100100010110
1100001000
1010010111
11001100
10000010
1111111111000010
1111111111111101
1111111110101010
1111111110000001
1111111011110111
1111111011000111
1111101000010010
1111110101110111
1111111001101011
1111111100000110
10000010110
111011
1111111011010100
100100010
1111100111000111
100111101
1111110110101111
1111111000111011
1111101010010100
1111111111000011
1110001100
110010100
10101101111
11010010111
10100111010
110010110
101
10000
1111111111111101
1111111110101000
1111111110010010
1011100
1111110101100010
1111111000001110
1111111001100100
11100001
1100
10011100011
1111100010
1111010010
1111111011110000
101001111
1111101000010110
11001011111
1001101001
1111110010000011
1111111010000001
111110000
1111111011
1111111001000100
11111000
101101100
11110101100
1101101100
10011011
101101
10
1111111110111010
1111111100101010
1111111100111111
1111101100011110
1111101111011101
1111111011011101
1111110011011010
100110101
10000100
10001010010
11110001111
1111101000
1111011110000011
1111011001011011
1111101000001001
1111110000011110
1111110011110011
1111100100101110
1111101001110100
1111111000001100
1111110101011011
1111110101111001
10010011
1110111011
1100100111
1111111110101111
1111111110011110
10100
1111111110100001
1111111011000011
1111110101010000
1111111010010001
1111101011001101
1111110100000011
11111000
10001001010
1101011010
1100010101
11000100110
101000100010
1111100111111110
1111100000010111
1111011111100101
1111001011110100
1111110010110100
1111110011000100
1111110101111001
1111101000110001
1111101010011101
1111110001111111
100000100
101111
1111111110010010
1111111010100111
10001
1111111111111101
1111111111000010
1111111010101100
1111110000100011
1111110011110001
1111110100111101
1011000010
1101110101
101000111000
100011000110
11110000010
100011111000
111001111101
11100001001
1100011001
1111100001011101
1111110110111000
1111101101110101
1111011001010100
1111100100010000
1111101111011010
1111011110111110
1111101101000010
1111111011000000
1100000010
1000000000
1111111101110000
1111111111110111
1111111111101011
1111111111001110
1111111010110001
1111101110110001
1111111100100000
1111111101001110
10110111001
1011000111
10110011110
11000000111
11001000110
10011100001
101011100011
11001011100
1111100111000111
1111100011101001
1111111111101110
1111110011110001
1111011100000111
1111110100001101
1111101000011001
1111101010001011
1111101111000000
1010001001
1111010010
111110001
111010
11011
0
1001000
1111111101101010
1111110001100010
1111111101000110
1111110110000010
1100110101
11011101110
1111100011
11111001100
1101001101
100011110000
110011110111
100010011001
111001000
1111111001110101
1001001000
10010100111
100
1111111011101110
1111110110000000
1111110001011001
100100010
111010100
1111111011101001
1000010100
110001
10101
1111111111111011
101
1111111110101100
1111111110000101
10100011011
1111000
1111111110111011
1000000001
1011001000
1000111110
1100011011
100011010111
11100110110
11001011101
1000011
1001100111
10010111110
10101100001
1111111001001001
1000
1111110110000001
1111101101100100
1111110101111101
1111110110100101
1111110101100100
1011111101
1011
100010
1111111111111100
110010
1111000
1001111001
10000100111
1111111010000001
1111110111110100
111111001
10100010111
11000111000
1111111111100011
10000010010
100000110001
1000100011
1001111111
10100011
1100101110
101000001
1001010101
10010
1111011100001001
1111101100101010
111011101
110001001
1111111000111101
1101110111
1111111111011000
1111111111001100
101
1111111111101101
101000
1000010000
101011000
1111111001010000
1111111001101110
111110000
1011111110
11010010100
10011000001
10000110011
11010111100
10111001010
1110000100
1111111110001010
11100010
1111111011100001
101011100
1111101100010100
1111010111000010
1111110010010001
1101110101
10100000111
11000100
1100011011
0
1111111111101111
1111111111100101
1111
1100111
101101101
1111111111001010
1111101100111010
1111111101001010
10001010110
101001010
1111101110
1111111111001111
111000011
101001101000
110001010101
1111111111100111
1111001110
1001111001
1111100111101100
1111110000111110
1111110101111000
1111101001110001
10001101011
10011000101
10100011001
100010000
1111111111110010
1111111110001001
1111111111001111
1111111111101001
1111
111100
100100011
1111110011010000
1111110010111000
100111111
1101001
100100101
1001100001
1111111111011010
1110
1111111101100010
11111010
1111101011001000
1111100111111010
1111011111101011
1111101000000001
1111100011111110
1111110111100100
1001101101
1111111100001101
1101010111
10000010010
1111111100100001
1111111101010110
10110
11110
10101
1111111111001110
1111111111101001
10001001
1111110100110011
1111110101010010
1111111001100000
1111110000001101
1111111001101001
1111110101101010
1111101100000001
1111011100111000
1111100001111110
1111100001000001
1111001011111101
1111101111010001
1111100001000101
1111100100100100
1111101100000001
1111101001001110
1111101101000110
101001001
10010111
11111000
11101
1111111110101000
1111111110111011
1100
10
1111111111101000
1010111
110110
1111111010011100
1
1111110110011111
1111100111000101
1111111110010110
1111100000010100
1111101100010101
1111100100000000
1111111110111101
1111101000010101
1111011110100110
1111110100001010
1111100111000000
110110110
1111101111111000
1111111110010000
1100110000
1010101001
101110011
1111111111101110
10111010
1100110
1111111111000101
1111111111000011
1111111111110100
1111111111101011
1111111111100110
1111111110110001
1111111110100011
100100010
1111111100010001
1111100011010001
1111100101011000
1111111011001100
1101000
101000101
10000111100
1111110110110010
1111110110001100
1111111110001110
1111110111111101
101011000
1001001011
1000001101
100100111
1101111101
10011011
1111111011000011
1110
1111111111111100
10010
11110
1111111110111011
1111111111111011
1111111110111011
10
1111111100110011
111011101
1111111011001111
1111111101100101
1111101001001001
1111101001100001
101010110
1010011000
101001000
1111111101000000
1111111011001101
1111111100000111
1111110111010000
1111111100110010
1111111100001110
1000111000
1100111011
1110011000
1100001101
1111111111011101
1111111101001111
1111111110100110
10
10101
10010
10
1111111111110100
1111111101001110
1111111001101000
1111111101011001
1111110110111001
111100101
1111110111
101101001
1101011110
1111110000010000
11011001
1111111010100110
1001101010
1111101100110100
1111111100110101
100100110
1111001
10111001100
11000001101
10011001110
1110100111
110110011
100010
1111111110000100
11010
10111
111000
0
1111111111101100
1111111010010111
1111110100011000
1111110001111010
1111101001010010
1111110111011111
10010000
10011010110
10111111000
10001001010
100110110
1010001111
11100100101
11101001
1111111111100101
1111110111010000
100100101
10110101011
10101101101
1110101111
1001011011
111110011
1110011
1111111110100110
1111111111110001
1111111111101111
101001
10101
1111111111011101
10000
1111111100000111
1111111111001101
1111111111100010
1111111111110010
1111110111010111
11011110
101101100
11111
1111111011001111
1111110010000111
110001
101111101
1111110110100100
1111111110010011
1111111001101111
1111111001001001
10011101
1000101000
10110000
11110001
110100
1111111111100001
1111111111111001
11001
1001000
1111111111110100
110000
1111111111101111
100000010
1001111011
1010100101
110010110
11000011
101010000
1111111011101100
1111111100111111
1111
1111111000101011
1111111101110010
10000111
1111110100011000
1100100
1111111111011010
1111111100111010
1111101
100100010
11101000
10011
1111111111101101
10111
101100
1111111111011010
1111111111101100
10001
10010
11011
1111111111111001
10010
1111111111110101
101111
1111111110111001
1010
1111111110100111
11100111
11011011
1111111110001101
1111111111000101
10111011
11100010
11011
11111010
1111111111000001
1111111111011101
100111
101101
1111111111110010
1111111111111111
101010
110100
11011
