11
1111111111010100
11010
1111111111011100
1111111111100000
11011
1010
0
1111111111101011
101
1000001
100001
1111111111111011
10
11
111
0
1011
1011
111110
1111111111110110
100100
1111111111010000
1001101
10001
1111111111001000
1111111111111110
10010
10100
1111111111000111
11001
1111111111111101
10000
11000
101101
1111111111001100
1001
1001100
101101
1111111111111101
1011111
1111111111111111
110011
1111111111110010
11000
1110
111010
1101
1111111111100100
1111111111110010
1111111111100011
1011
10000
110010
0
1100
1111111111110111
1111111111111000
11011
1111111111100010
0
11100
101001
1111111111001111
1111111111001100
1111111111100110
101110
100010001
100111001
111001100
110010110
11000011
10010001
1111111111011011
1111111011111001
1111111101010111
1111111101101110
1111111101010010
11
1111111111001111
1111111111101110
10111
111
11000
10010
1001101
1111111111010111
1110
1000
1111111110010010
1111111111000011
1111111110111101
1000100
1111111101111110
1111111000000110
110010
1111111010111001
1111111110100100
1000100010
1000110110
1010100110
101100011
1111111010111100
1111111110010010
1111110110111101
1111101111101101
1111111100110100
11
101111
1111111110111100
1111111111100100
100010
1111111111010010
1111111111110000
101010
10001
1111111111110000
1111111110000100
1111111110110111
1111111101000000
100010
1111111101011110
1111110111101101
1111110110110010
1111111011101010
1111110011110001
1111111110011101
1001000000
10011111101
10110100110
1111110110110100
1111111010111000
11010
1111100111011110
1111110101011110
1111110100000001
1111110000111111
1111111011010010
1111111111001110
101
101110
1111111111111010
1111111111111000
101010
1101000
1111111110110010
1111110111101011
1111111101111000
1111111110101001
1111111100000100
1111111100011001
1101000011
1111111010111001
1111101111010000
1111101011011010
1111111010100011
11000011
100111001
10000000001
1111110001101011
1111110000010100
1111111110100111
1010011
100001011
1111111110110110
1111111101110001
1111111111100101
1111111111011101
1111111111110000
1111111111100111
1111111110011101
1100
1111111111010110
1111110110111011
1111110000110111
1111111110011110
1111111001011110
1111111101101011
1111110111100010
1111110011100001
1010010011
1111110010000101
1101010000
1111111011000001
10010001
1000010011
1011000001
1111111110000110
1111101101000110
100100
1000000011
1001110101
1111111110100101
1111111000000110
11010
100111
1111111110111011
0
1111111101010010
1111111010011010
1111111010011110
1111110010101010
1111110100000111
1111111001100111
1111111101011000
1000000111
1111111001011011
1111111110111111
1111110111101010
1111110011111001
1111111010101101
1111111010110101
100011101001
101000011
1100001110
1100101101
1111110101001001
101011111
10011001011
1000011011
1111111000111101
1111110011001001
1001001
100111
11010
1111111111110111
1111111100101100
1111111000110000
1111111100000101
1111110111110100
1111111000011010
1111101111001110
1111110011010011
1111110110100110
110011111
1111111100001000
1111110100101001
1111011110110100
1111111011100111
11000101011
10101010001
11110100001
1111110111111011
10001000011
1111110010100011
1111111111000101
111111001
1111111010001000
1111100100101000
1111110010001010
1111111111001110
1111111110101110
1111111111101100
1001
1111111111110011
1111111010011001
101001
1001110010
1111111111110000
1111110111000011
1111110101110101
111100001
1111111110111111
1111111000001100
1001111110
1111100010011110
1111100100000110
10011010010
110000010100
10011100011
11101100
10010111011
1111111110100111
11000110
1111111001010110
1111110101101001
1111101110011011
1111110011101111
1111111101010001
1111111111101011
10111
110001
1111111111110110
1111111100000110
11000011
100000100
10010110000
1101100111
1011100110
1110001111
1100000110
1111100
1111110101111001
1111110110100111
1111100000001000
1010001000
11111011010
11101000010
1111110011000111
1111110011000100
1111111100100011
11101110
1111111000000111
1111111010110110
1111110111000011
1111111110100001
1111111111000110
111
1001001
11011
1111111111001010
10101
1111111110101101
11011001
11011101010
10010100101
1000001011
10001110010
100110011
1111111011011100
1111101100100110
1111110100110100
1111011010001100
1111110100000010
1111111010100101
1000001100
1111111101011111
1111110110111001
101100011
100000011
1111111100011101
1111110101011011
1111111000001011
1111111100111000
1111111011101110
1111111111101110
1010
1111111111110110
1111111110110010
1111111111010100
1111111011110010
1111111111001000
1010110110
100000110
10010101100
10000101
1111101111011110
1111100001100001
1111101100000100
1111010011101001
1111011011010011
1111110000100011
10010101
1010110001
101
1111101000011011
1111110100111011
1111111010010000
1111110111011110
1111110111101100
1111111100101101
10110010
1111111110000001
1111111111110101
1111111111001111
1111111111110111
1001001
1111111100010010
1111110100010010
1111111111000111
1010
1111101110000011
1111110010011011
1111100000000000
1111010000110000
1111010001100010
1111011110010011
1111111000101000
1111110000011110
1111110111100010
1111110011001100
1000000000
1111110011010111
1111100011001010
1111101011000011
1111101101001011
1111101101010011
1111110100000111
1111111011000101
11011101
1111111111011101
101011
1111111111100001
10101
1111111111101111
1111111101011010
1111110100011110
1111101111010011
1111101001001001
1111101011100011
1111000101111101
1111000111010110
1111001110000100
1111100110001100
1111110000000000
1111110000101011
1111100101100010
1111100010001101
1111111111110011
1100110100
1111110011010111
1111110011110000
1111101011100011
1111110101100000
1111101111101001
1111110000011010
10110011
100110001
11000001
1111111111111001
111001
1010
110
1111110111110100
1111101101101001
1111011101110111
1111010111101001
1111010000010001
1111011110101111
1111110001000000
1111110110010111
1101110
1111110101001111
10110000
1111101111001101
1111111110101110
111100100
1111111110100101
1111101001000000
1111110101000010
1111110101001010
1111111010011010
1111100011111111
1111101000100000
1000001
110001111
10011101
100110
1111111111101110
101100
10111
1111111001000110
1111101101010000
1111011110011101
1111011010001101
1111100101100100
1111100101010001
1111111010010110
10001010111
1110100010
10010101
1001010100
1111101011111010
1111110010101101
1010101
1111101001110010
1111110111100001
10010110
1111101001111111
1111011110110000
1111100101001110
1111110011011000
1010101110
1100100110
101100011
10111
1111111111111011
1111111111010101
110110
1111110101101110
1111101011111101
1111101001001111
1111011101101000
1111101100110010
101101011
1011011010
11001101100
1111011001
1111111111010101
1111111001101110
1111011101110011
111001011
1111101101100100
1111101000110100
1111101000001110
1111101110000000
1111101010000111
1111100011000010
1111101111111100
10110101
1101110101
1010000010
1011110
1111111111110011
1111111111001010
110111
110
1111111010111100
1111110001011111
1111101001101101
1111100011101000
11000010
1000011000
1101001
100101011
1111110111011101
1100100100
1111111111101110
1111111000101111
1111111001011000
1111100000000000
1111101110100110
1111110110001011
1111111110001011
1111110010110000
1111111011010001
111111101
1011010110
101111101
100110010
1110110
10101
1111111111100100
1111111111000001
1111111110110011
1110111
10100
1111100101101100
100100010
100001000001
10011011100
10110001001
11100101111
110100101
10000011010
101000011001
1111111010000001
1111110001100100
100010101
1111110111100011
1111111010000110
1010110100
11001010
11101101
1111111111110000
1011011110
1100111
101010011
11001110
11100
1011
1111111111101100
1111111110111101
100110110
1010100
1111101010001101
10000001001
10111011100
11111001100
11001111010
11001110011
100101110101
11010110111
1011001110
1010
1111111101010110
1001101010
1110000101
110000010
1111111010
1111110011
10000010101
1000101101
1111010000
100000100
100111101
1111101
1111111111010011
1111111111101101
1111111111110011
1111100
11011001
1111110111110110
10001011100
1100101110
1111111001001111
1111111001111101
110011101
10011110000
10100100
1111000110
1111111111001011
10100
1111110100011001
101011011
101101111
111001001
10000001010
10001100001
10100101100
10101101101
10001011000
110010101
100111000
1010011
1111111111101110
100001
10110
11010010
1111111100111011
1111110110001111
11001110101
10111001110
1111111101100010
1110111010
1001001000
110111001
1111110100001100
1111111100000100
1111110110100111
111111001
1111101110101011
1111111111111000
1111111110011100
1011001010
10011
111100001
11011001001
1101110100
1001010100
1000100001
110001101
1000101
110010
1111111111101110
1001
1111111111001111
1111110111111000
1111101111101111
110110
1111011111
10000110111
1111111100100010
1011110000
1111111111000000
100010101101
101111001001
11110
1111110101100110
1111111000110000
1111110111011101
1111111001001011
1110
10111001
1110100001
10001011001
1111001010
1111000101
1000111101
101000101
110100
1000001
11101
10000
1111111111100000
1111111101010000
100101011
100011111
11101110
101
1111111111010010
111010001
1111101110000011
1111110110000111
1011110111
1111111111101111
1000000000
111101010
1111110010010111
101000000
1010010011
111111010
101000101
1111101110
101101011
111001001
1000101110
101001000
111001
101001
101000
1111111111111111
1111111111110000
10100
110001011
110001110
100001110
100110010
111100000
1000011
1111101011001100
1111110000101000
110100011
1010011110
1111011100
1001011101
111110
1000000110
1111111111011110
1111110100011000
1010001
1011010
1111111111101000
1111111110111111
1111
111110
1111110
11101
1111111111100011
1111111111011101
110100
1001100
1111111111100000
1111111101010100
1111111100011110
10101
11001
1111111101101111
1111111001100010
1111111001111100
1111111111101001
11100001
1110
1111111001000000
1111111000110110
1111111001110011
1111111010010001
1111111100100111
1111111101111001
1111111110000000
1111111110110110
1011
111011
1111111111010100
1111111110101001
101011
1111111111011010
111
100101
1001110
1000
100111
101101
1111111111101110
1111111111101101
1111111111101000
1111111111110010
1111111111101010
11010
1111111111101010
111000
1111111111101111
1111111111111111
1111111110001000
1111111011000000
111010
1111111110011110
1111111111011101
1111111110111000
11000
1111111111100100
1111111111100001
100
1111111111110010
