1111100101110110
100000111110
111100010
1011111111
1111011101100100
11000000010
1111011110101010
1111110110010101
10001
1111000110001010
1000101110
1010101011
1111111001100110
100110001000
1111111010101100
11111110
1111101001010011
1111101011011110
1111000100000011
10101010110
1001001010110
110110010
1111111110000110
100101001101
1111110111011100
1111111111010100
1111100010101100
11100100110
1111001101000100
1111010110011001
