100011111110
101000001
10000101111001
1000101001001
100110100110
1111011001110010
10010000000
1101110110111
10011010011
1110111000001010
1111100101010001
1010001100000
1101111001101011
1110100010010001
111110100111
1010110001001
11111101100
1111101110010000
101101000001
10001011010
1111010111000111
11111000101
101010111010
1111101100101001
1111000000001011
100101010111
1111110111000100
1110101111001011
1000111000110
1111001101000101
