1111100001100110
100110110110
1100010111001
11110110
1101111100
1100010010011
10000100110
10000011000011
101100100001
1111111000100011
1111000100000111
10110000
1110111100101111
10001011001
1111101000010111
1000000011111
1111100101011111
1111110100111010
1111010110100001
101110111000
1100111000110
1111101010001000
100010101011
11111000011
1110011101111110
1111010110101001
1110111101101100
10010100001
100001000111
10011000
