1111001110110010
100000100101
1111010011000101
1111101110001000
10011110
100111101001
11111101001
1101110010
110010000100
100011101111
1111100011110111
1111001010001101
111000111101
110010100010
1111000001000001
1111011000101110
1111101100100001
110111111
1111001101101011
1110001011
11000011001
1111011111100011
1000010111
111101100
1111000111010001
1110100100110011
100000101101
100011000010
1101000010
10011101100
