1101001100
1111111000100111
101111100100
1001000001110
1110101010111010
1110101111001100
111101110
1111010000010100
1111110011011110
1111100011111100
100110111001
1100100100101
1110101101101111
1110011001111001
11110011110
1111010111111001
1111110000001110
10001011010111
1111100000000
1111101110000010
1110000101111100
111001000010
1000001110110
1111100011110111
11001010001
110001100011
110101110001
1111000001101111
1111111011100110
1110111111110010
