11111100011
1110101110001111
1111001100000000
1111001101110010
1011000111000
1101010101
1111000011110000
1111010111001101
1111010110010101
1001001000
11010000110
1110110100111001
10011101000
1111111101110100
101011101
101011000
1111110111010101
1111010111000011
1111101111101000
10100101100
1111101011011001
1111101101110100
1110111010110011
1111111110010110
11001011111
1111100001011010
1111100011101000
1111110110111110
101110110001
101001010000
