1110011100011000
1111001000111001
1101011001000100
1111011101100111
1011111001
1110001011001101
110010100101
1101110001011101
10101001110
1111110101010110
1111001100100001
1111100110011111
10011100111101
110010001010
1111100011111010
1111001111111010
11000001000
1111000110010011
110101100
1111011101011110
1111100010010110
1001100001101
1111101101010110
110000100001
11111000101
1000110010111
1111011011110
1111111000100010
1110011000001010
0
