1000000110
10100000011
1111101011101000
11100010111
1110110111001101
1110101100101000
1111011011111001
1110110001001100
1111001010010010
1111111001000100
100000000000
1111101110001110
110111000
1111111000001011
1111110101000000
1110111111110110
1111010011011010
1001110100001
100001100011
1111101100101000
1110011000010000
1111101001101000
100000000100
1111111001001101
1011101100000
10011010001
1000010110000
110000001110
1111111101000011
1111101000101010
