1011101101101
1110110100101001
1111100100111001
111101101
1100111110010
1111011110001010
1111011100011110
1111011011011111
1110111111011110
1111101100111110
11010010100
1111110111110111
1111100100010011
1111011111000000
101000010101
1100010111100
1000011010001
1110110000101010
1101100
1110111101100100
1110111110110011
1111010000010010
1110010110111010
1111101000110011
10100011101
10001111101
11100101
1111000010111101
100110111110
1010110001
