1100001011100
1111010110011111
1111010110001011
1110100001001
11001101
1110000010100001
1001110111101
1110110000000010
1110110101001011
1111011110101000
1110110001001101
1111101100001101
1011100101111
1100000110
1111111101000110
1111000001000000
100011110011
1010110001110
101100110100
110101100110
1111010010010100
101010011001
110100011011
10010011111000
10010000010001
10010101011
100010000
1111010001111110
1110110110000001
10110011001111
