1111001001000011
1111011000100101
1111111101110011
1111101100100011
1101000111
1110110110001011
1110100010010111
111000100110
100000110011
1101100001000110
10100010
1000001010111
1110111000101000
10000000111111
1111101001101101
10011111011
1111110110111101
101101101100
1111100101010101
111111001100
1100001001111
100101010010
1000111101
1111000001100000
1101110111110
101111011011
1110100110011100
1100001011100
101100100100
1110001011011001
