10000100110100
100101001010
1110111100101110
1111000100001000
11001000100
10100111001011
1110100101101010
10000000001011
110001100100
1111011101000000
1001100000011
1111101101101010
1110101101100010
1111000001101010
1111110011000110
1101011001101001
110110001000
1110010100
10111110010
1111100010110010
1111111001000111
100000001100
110111101111
1110111110011100
1101101101010000
1111111001000010
1111000110100100
1101111111010
1001101011
1110001110101
