1111000010001110
1111110100101010
100000011010
1110010011101110
1110011100011001
1101010010010101
10011000111001
1011001001010
101111110100
100011011110
1110010101010100
1111010010100001
1001110011011
1110010101110110
11001110110
1110100010101
1110011001000001
1001111100110
1111011110111000
1111100110111100
1110110011011000
1010000101011
1110110001001101
1111001010011111
110110110111
1110101000110000
1110011001110111
1110011000111101
1111010101111000
1010110101100
