1111
1111111110111000
1111111111100100
101101
1111111111101101
1111111111101111
1111111111100011
11100
1111111111010011
1111111111100000
111101
1111111111101111
1111111111111100
101011
1111111111011111
0
1010
1111111111111110
1111111111011101
1111111111010101
111010
1111111111011000
1111111111110111
1111111111110000
1010000
1100
11001
1111111111111011
1111111111110011
1111111111110100
10000
1111111111111011
1111111111110001
101001
1111111111111010
100111
11111
1111111111101001
1111111111011001
1111111111111101
1100
100110
1011
1111111111111010
101001
1111111111110111
11111
1011101
1111
1111111111101010
11100
1111111110111101
1111111111000000
1111111111001000
1111111111101000
1101
1111111111011110
1111111111011011
1111111111111001
100001
1111111111110001
1111111111101000
1111111111111000
101011
10101
1111111111111000
1010100
11010110
101100010
1000010011
100101000
10000
1111111111101011
10100000
1001111
1111111111111010
1111111110100101
1111111111101010
1010000
1111111111111110
1111111111111110
1111111111000110
1111111111010001
1010101
10010
11100
1111111110111010
10010
110100
1111111111101100
1111
1111111111010111
10101000
101011110
11100100
110111101
1101100110
10100111110
10011111010
1110000111
1111111110011101
1111111101100010
1001011100
1000110111
10001010
110110111
1010011
1111111110111001
10101
1111
1111111111101011
110
1111111111111110
10
1010
1001
1000000
1111111101100100
1111111111000000
1111111011111110
1111111001010100
1111110111001110
1111111101111010
1111111001010100
1111111001010101
1111110011100001
1111101011000110
1111110101001110
1111111010100100
1111111110111001
1101000011
1000100000
1010101111
1000001
101110110
1111111110111110
1111111110100110
111001
1111111111110110
1001000
1111111111110011
1011
100001
1010000
1111111110011000
1111111011011001
1110
10000100
1100111100
1101110010
10011101010
100011010011
1001110000
1100101101
1111111000101100
10011000
1111111110100000
101000100
1011100010
1111000
1111110011100110
100100000
1110000
110101111
1111011
1111111111011011
10011
1111111111000111
1111111111111101
1111111111100100
11001
1111111111110111
1111111100111000
11111010
1111111011110011
1100100010
110010010
1111111001101110
10001
10110011010
1100000011
11111110
1111110111011010
1111100000110100
101000000
110000
1111111001010111
111010100
1111101001011111
1111111101100101
1111111111010111
1010101011
1001100101
11000110
101101
1111111111000111
100110
11100
111100
1111111010010001
1111110101101011
1111110011111110
1111111010111001
1010110101
1111111010011001
1111111101000111
10000100001
11000000101
10011100100
1111111011000011
1111101110000110
1111111000101101
1111100110010000
110111011
1111111110100100
10011011101
1111111011001100
1111111101101001
1111110010010010
10101111
1100001110
11010100
1010
1111111111010101
1111111111110000
1111111111001110
111111
1111111110000001
1111110101001101
1111111001011100
1111110011111101
1111100110010011
111010001
11000
1111110001110010
1100101111
10111101011
1111011101010001
1011010010
101000011100
1111101010100100
1111011101000011
11110001
100100000
110011011
10100001010
1111110111000011
1111111011111000
10100011001
10000001010
1111111100001000
10
1111111111110000
11011
1010
1111101
1111110011101111
1111110111100001
1111111101100011
10111101
10000110100
1011110001
1010000101
111010110110
1110111111
1111011010111011
110110
1011001111
1111111010111000
1111110000101000
1111110100101011
1111010101111111
1111111110100010
1111110110000100
1111101000111100
1111111011011111
101110011
1000000010
1111111101100101
1111111111010101
10010
1011
100001
1000
1111111101100001
1111111011101000
10001000110
1110001010
10110000001
10011110011
11100101101
11010101111
1111110100101111
1111011010101010
1111010111011011
11001001
1111110100100111
10000110000
1111101111101010
1111101011100101
1101101111
1111111011110100
110101
1111110101100100
11001111
1000001011
1111111100110100
111000
1111111111100011
11000
1010
11110110
1111110110100010
1111101111000110
10110111010
1111111110001001
1000111
1010010100
100001111111
10001001
1111111001000001
1111010111100110
1111011110111011
1111110100010001
111010011
10000010110
10
1111111010011100
1000100101
11011001
100001110
1110000
110111001
1111111100101110
1111111000101110
1111111111011000
1111111111110011
101111
1111111110100001
1011101001
1101101000
1111110001110110
1101011010
10011000001
11010001011
10010101011
11011101100
101011100
1111011000110010
1111001000101110
1111010111111011
1111100100110001
1111111000011101
100110101
1111111011001110
1010010
11011101
1111000000
1010101110
10000100001
10110
1111111100101100
1111111111000101
1111111111111101
1111111111100000
10001001
1101010
10000000001
100000000101
1100000101
11
11111110101
1011011111
100111100
10110101
1111110011100101
1111011100100010
1111011000100100
1111100011000110
1111101000010110
1010001
1111111111111010
1111100111100110
1111111000001101
1111110001001001
10011110000
10101011001
10001001001
1011010010
110100110
1111111101110101
1111111101111111
1111111111100001
1100100
1010111
1010111011
11110011011
10010110110
11101011011
11110111100
100000101111
1100010011
101101010
1111011110011000
1111010101000110
1111011011100010
1111100101100100
1111100101111011
10100010
1110100110
1010010101
1111111111000100
11001
1111111100101000
11000110011
10000010001
10000000111
11010
1111111011101011
1111
1111111111110100
10101
1011001
1001010101
1001101010
1100100111
11001011011
11111100001
1111111001110110
1111110110000010
11010010111
1111110000010101
1111101101010100
1111101110110101
1111100000000001
1111010001011010
1111110110110001
1111111000101010
1101010100
1111111110011010
1111110010101110
1110011100
1001101101
1111111100110001
1111110000110001
1111110000011101
1111110111010010
1111111111111000
101111
1111111111101111
1100100
10010101
1111111110001111
10011011001
1110000110
10111010111
10010111010
1111111100100011
1111110111000000
1111111101110011
1111111001011110
1111101111000011
1111110000000100
1111011101100110
1111101101101101
11101100
11000111
1111111011001010
111001
1110110010
1110001100
101100011
1111111101011010
1111110101001011
1111111010010111
1111111111101000
1111111111101001
1111111111000101
1101000
1101
1111110010100100
1111111011101010
1111110110000001
1100010011
1100001100
10011
1001101100
10010011001
100011111
1111011010010111
1111100110101110
1111010111100101
1111101001110000
100001100
10010100000
1001111011
101010111
110001110
100011000
1011010011
110011000
1111111011111001
1111111100101010
1111111110010101
1111111111110011
1111111111100111
101011
100110101
1111110111000011
1111100111110111
1111101101100101
1111111000001100
1111111010001001
1100111000
1111111001111001
1111111000001111
1111110101110011
1111101101010101
1111100011000111
1110111101101100
1111101101111111
11100111101
10111100001
10101011001
11001011110
10001011100
11111000
1111111101010100
1111111101111111
1111111000110001
1111111000110011
1111111011110010
1111111111101111
1011
111010010
1110100111
1111111100001110
1111110100100101
1111111010011100
1111111101100001
1011110
1001010010
110100101
100001101010
11000010000
1111100111101100
1111010001100100
1111001100001111
1111110111101011
11000101110
10110111011
10101101010
1110100100
100010
1110000
1111111010110110
1111111101001110
1111111100011011
1111111110101100
100000
1000
111
101011001
111101011
1100100
1001101100
1111111111110001
1111101000100010
1111110101110100
111110101
1111110000111110
1111111010000101
1111111100110000
1111100001001011
1111110000111010
1111111110110011
101110111011
11110010001
11111000
10010100
1111111010011000
1111100110110001
110101100
1111111101000000
111100100
111100100
1111111110111011
110001
101101
1111111110111011
1111111111011010
1111111100011100
1111111111010111
10000011100
1111111111011011
1111110110111101
1111001011
1111111001010010
111000011
1111111000100010
1111110000100011
1111100000100001
1111100111110001
10101110011
100100100101
100101010
1111101111
1111011100
10010111001
1100000000
110101101
1111111000000001
1010010110
110100111
1111111111100101
11100
11101
110010
1111111110011011
1111111101000010
1111111001110101
101011101
1111110001011010
1111110100110110
1111101101010101
1111101011111010
1111110000001000
1111100110011110
1111110011010000
1111110010101110
10001101011
11101101
10110011101
10001110100
11011110111
1101101000
101110000
1101110101
1111111110111011
101101001
101001111
110111011
1111111111011010
1111111110100001
1111111111100100
1111111111110010
100
111
1111111010000000
101100101
101101001
11010
1111110000100010
1111101110001000
1111111100100100
1111111011110011
1111110101011110
1111110001110010
10100101101
11000000111
100011101000
11110001110
1111110101011110
100011001
110001000
1111111100000000
1100000
111111100
110101000
10111000
1111111111101011
111
101
1111111111110001
1111111111101110
11000000
1111111110011111
1110100
100111110
101101100
101001001
11010010
101001
1111111101100011
1111111100101010
1111101111111110
1010011
11011000001
11111100100
100000000110
1011110100
101101011
10011101010
1100100011
1001100011
1010110111
1111111111110010
1111111110101111
11111
111000
111
1111111111011010
1111111111011010
10010001
1000100
10000110
10011111
1111111011101000
1111111010110101
1111111100110101
1111101111001101
1111110100110111
1111110010101111
1111110110000010
1111111100101000
1111111110100000
10101101
10000011011
10000001010
10000000000
1101000100
1100111011
1101111
10001110
1000011
1111111111010010
100010
1111111111110100
1111111111111110
111111
1111111111111011
1111111111101000
1010
101001
1100
1001001
1100000
11011000
1111111100100011
1111111010000001
1111111110101001
10010011
101010110
1011011111
1001011010
110111000
1000010
110000001
1101111011
1101101111
11101011
101011
1111111111100001
11011
1000
1111111111101100
110110
1111111111111001
101000
100010
1000001
1111111111100110
101000
100111
11101
1111111111110111
1111111111011111
1111111111001100
1111111111011101
10010
101101
10011100
1100010
100000
1100101
1111000
1
110101
10001101
1111111111110101
1111111111101101
1111111111110000
1111111111011100
1111111111110000
