1111
11100
110
101
11101
111110
1111111111111000
1111111110111110
1010
10001
11111
11101
1111111111111110
11111
1111111111111110
100011
10101
11100
11111
101000
1111111111111100
1001100
1111111111001001
11011
1111111110110010
11110
1111111111011001
110011
1111111111111011
1111111111011000
1111111111110000
1100
1111111111010110
100011
1111111111101000
1111111111000011
1111111110010011
1111111111010011
0
1111111111001111
1111111110011010
1111111110111001
1111111111101100
1010
1111111110001000
1111111101000100
1111111110111101
1111111111101011
1111111111101100
1111111111100101
100100
1011001
11000
1111111111110111
100
1111111111111010
1111111111001111
10101
100001
1111111111101111
1111111111111000
1111111111010000
1111111110111001
1111111101010010
1111111100100001
11001101
100000
1111110111000111
1111110001100010
1111111010010110
1111111010000101
1111111100000100
1111111001001010
1111110010111010
1111110101111011
1111111001000010
1111111011110101
1111111101111010
1111111110101010
1110
101100
1111111111011100
1111111111111000
1111111110111000
101011
1111111111111111
1111111110111100
1111111110101001
1111111111110101
1101001
1111111110100110
1111111111100000
1111111110000010
1111110100110010
1111111111101111
11100
1100001110
1000010111
1111111100000100
1111101110101110
1111100110100110
1111011000110000
1111010100001011
1111100101111111
1111110001111111
1111110111111111
1111111100101100
1111111110100011
1111111111111101
1111111111101110
10001
10
10
1011
10001
1111
10100
1001010000
110101100
111011000
100010100111
1001110000
1001110011
1100111011
10110000011
1110000101
1110100
110001100
1111011001000001
1111010010111001
1111010101100110
1111011001000111
1111011011100001
1111110100100001
1111110010110001
1111111011001000
1111111101110010
1101
110011
11100
1001
101
10010
10011101
1110110001
10110000001
10011110000
101100010001
1111011111
1111111011001011
1111111101011000
1010001001
10001100
1010000011
101001100
10101001111
1111101111010010
1111101010110000
1111101000100110
1111010101101010
1111001111000000
1111101010000110
1111101111000000
1111110011011110
1111111100001101
1111111110101111
100101
111000
1111111111111111
1111111111101101
110
111101010
10101101100
100100010
11111101100
10001011001
11111110
10000000010
1111111100011101
1110101011
1001111110
1111111101000100
1111111100111001
1111100110110110
1111110100111111
1111110010000101
1111110110000011
1111011111001001
1111010011000001
1111100111000011
1111101101000001
1111110110111000
1111111100110011
1110101
111
1111111111101101
1111111111010010
1111111111100001
100010
1110111110
10101011011
1111111011000101
1100001111
10010011
1111111010010001
110101010
1111111100101010
1111111110011111
1111111000110111
100011101
1111110000101010
1111111111011001
111100110
1111110000101100
1111101111100110
1111011011100101
1111001001111010
1111010100000011
1111100001000011
1111101100100101
1111110101101110
1111111111100001
1111111111101101
111101
1111111110110001
110001
110110
101000110
1001011101
1111111010110101
1111111001100001
1111111000100101
1111101110110000
1111110010100100
100110111110
1111110110110000
1111101101011100
11001000101
11000111110
110000011110
1010111000
1111111001010101
1111100011110011
1111100101001011
1111001100010000
1111010101001010
1111100000001000
1111101110100110
1111110110111111
1111111010100011
1111111111110110
100010
10011
1100
1010110
1111111101110110
111110001
10101000000
1111111110000001
1111110011011001
1111100011011001
1111110111100110
1111111010000110
1111101111000011
10100001011
101001001001
1001110100010
1000110110101
10011111000
1111110001110111
1111011110110101
1111010110011011
1111000100100011
1111011111000100
1111101010101111
1111110100000010
110
1111111111110110
11000101
111001011
1111111111101000
1111111111011111
1111111110111011
1
1111111110011111
110100001
1111001
1110000
1111100110011110
1111111110000000
1111111101100010
1111111111010000
111101010
101110010111
101011101001
11010000011
11100001001
1111101110001011
1111011111100100
1111010010000100
1111010011001100
1111101011100100
1111111011011000
1000111111
101001001
1111010
1011111
10100110
1011
1111111111101011
1010000
1100000
1111001011
1111111110001010
1111111010100111
110100001
10010111110
11110000110
1111110101
100000110010
1100101000
1111101
10111001001
101110110
1111110110100000
1111011011010001
1111011101010001
1111100001001101
1111100111111111
1111110000100001
1000000000
1011101100
1111110111111100
1111110110101100
1111111000001110
101101
1111111111110001
1111111111101111
1000001
1111111100101100
111010000
101010000
1111111000011011
1111110011101010
1111111111110111
111100000
1111111110100111
1111110111000011
111001
1010111101
11111101011
110011011
100010000
1111101001110010
1111110011101010
1111110001101011
1111101110000111
1111111101011110
111101001
1110110
101111111
1001001001
1111111101000110
1110011
1111111111101101
0
110111
1111111011100010
1111111110000010
1111111000001010
11100101
1111111100111101
1111110010111000
1111101011001000
1111111110011010
1010010111
110001110
1011110001
10111101000
1111111111101101
1010101100
1111111001100110
11001
1111110001100111
1111111001110111
101011011
10001000
100001
1110100111
1110010111
110010001
11100001
10000
11001
101000
1111111111000100
1111111001010000
1111110000110000
1111101110110110
1111100000110000
1111111010010011
1111110110011110
1111101000001111
1111110001111110
1111101111100011
1111100110100011
101111110
1111111110101001
1111111001111100
1111111001110011
1111101100001110
1111100110
100010111
11100000100
11001111
1101101011
1000110011
1101000000
1000001110
101111
1111111111111000
1111111111111011
10111
10000100
1111111011110001
1111110111000010
1111110110011100
1111101011000101
10001110
110001110
1111111000000010
101010
1111111110100111
11010110101
110101101
11100011
100100
1110001110
1111110111110011
101111110
1100101011
1101100000
100101111
1010101
10000110110
10000000111
1001101000
1111111111110000
10100
10000
1001001
1100010
11100
1111110010011111
1111110101001111
110000100
11100110000
10110110100
1111111011101110
1111101100110110
1111101110111100
11111001
1111111011011110
1111100110010100
1010011100
1111100110001110
10111101101
1000000
100100011
110010001
111101
1111111011110000
10011111110
10000000001
1101101110
10111
11101
1111111111100111
1000100
1111111111001101
1111111111111110
1111111011101010
1000010100
1010011010
1111110010111011
1111111110001000
1111111000011101
1111101111101110
1111111011100011
10100011
10111111110
1111110100010110
1111111111000001
1111111101110110
11100000
101011111
1111110010101100
10011110010
1001010000
1111111100101001
1000001010
10101100101
101101001
101
1111111111100011
100111
1111111111100101
10110
111101011
10000011
100001110
1111110100000101
1111111000111111
11011
1111111011001011
100011000
1111100100110000
1111111011000100
1111110010001101
1111101110101011
1111101011111011
1111111111000001
1111111001101110
10000100
1111011100
1100000101
1111111011
111101110
1111101010
10001101000
101000011
100001111
1
1001
1111111011101011
1111111101100110
11001110
1111111100000001
10010
1111111001101100
1111110100000011
1111110001110110
1111111001111110
1111110111001111
1111111000010111
1000
1111110110100110
100001100
1111111000101111
1111111011001111
10010001111
1101110001
1000111111
1111111001001001
1111011000
1111111000110011
101111100
111111110
1101110
10011
1111111111111010
1010011
1111111100100001
1111111101000010
1111111001101011
1111101101011000
1111111100101010
10100100000
1111101110010000
11110100
1111111011101001
1111101111000000
1001010000
11010001
1111111011101110
1111110101011010
1010101
1111111000010000
1111110110101011
1111111110010111
1111111100001110
1111110000001000
1111111001101010
1111110110011100
100100101
1111111111110000
1
1111111111001111
1111111111101110
1111111111010100
100111
1111111111011110
1111111111101000
1111011100001100
1111100101011010
1111111110111001
1111110101010010
1111110010101010
110101111
1001100101
1110001001
1111101100111111
1111111001111101
1101
1111110100000011
1111011101111010
1111101001111010
1110101010
1111110101101000
1111100000011001
1111110100110100
1111111100100011
1111111111010110
100001111
1111111111111111
1111111111101001
100001
101
11010
1111000
110111000
1111110011000001
1111110111111110
1111111101011001
1111110111100100
1111111111110100
1001111010
100000000
1111101100101011
1111110000001001
100011
1111110011101110
1111100011010010
1111110000111100
10010001100
11000000
1011010110
1111111001111010
1111111011001001
1111110110011000
1111111010001000
10010101
1111111111111100
1111111111111100
11011
1111111111110000
10
1100110
10101011
1111111101010100
1111111100011000
11111110
1111110011110000
1000000110
1101000111
10101101100
1111110111011011
1111111111000111
100100
1101001010
1111100110111010
10100010110
100001011
1111111111000000
1001010100
1111111001010111
1111110110001101
1111110000000011
1111111001110110
11010
1111111111101100
1111111111000010
1111111111100100
1111111111111101
1000
1000
10001000
11001000
101
100011100
100011011
1111110100110011
1111110000111100
1111110101110110
1111100101000010
1111111010111001
10100001011
1111101111101100
1111101110101101
100110001
1111110100110111
1111111111101110
1111111000100010
1111111111101010
1111111001100111
1111110011101101
1111111001100110
1010000
1111111110101011
1111111110110011
1111111111110010
101111
10110
1111111110101000
101
11010001
100110001
110111100
1011100000
1000001110
1100000010
1111110111110010
1111011110010100
101011001
1111110010
110001011
1111010
1111111011001101
111001011
1111111100000101
1111111001010010
1111110110011111
1111111011110110
1111111000011110
1111111010001111
110001
1111111111111001
1010101
100111
1111111111110010
1111111111101110
1111111111000111
11000
1101
101010
1111111111010111
1111111110110101
1111111110011111
101000
1111111110111000
1111111001010010
100110111
1111111111101110
1111111100011110
1111111101100001
1111111100001001
1111111011010010
1111111110001110
1111111101010011
1111111101101001
1111111110000101
1111111111101000
1000
1111111110110001
1111111111110110
1111111110110100
111001
1010
100010
101101
1111111111011001
1001100
11100
110010
111010
1111111111101000
1111
1111111111001001
10001
101110
1111111111010000
1111111111011110
1111111110011100
1111111110101100
1111111101101010
10001011
111000
1111111111001001
1111111111110101
1111111111101101
101010
1111111111101111
11010
1101
