101100
110100
100
11
1111111111110010
1111111111111011
10111
11110
1000
1111111111111000
0
11110
1111111111100010
11
1111111111110010
1101
1111111111101001
11110
1
1111111110111100
1111111111111010
1111111111010010
1111111110111010
1111111111111011
1111111111101000
1111111111110011
1111111111111011
1111111111101000
11
1111111111011010
1111111111101001
1111111111001011
1111111111101111
1111111110111000
111111
10001111
1100100
1111111111100110
1111111111111110
1000111
100011
100110
1111111111011000
1001011
101000011
1010110
110110
1111111111111010
1111111110101110
1111111110101101
1010000
11010
1111111111111001
1111111111000010
10010
1
1111111111110011
10110
1110
11011
11011
1111111111011100
1001000
10110001
100010000
11011111
111001001
1100011001
1100101011
110110100
1110011
1111111110101000
100101101
1111111100011000
1111111011001001
1111111010001100
10010
1111111101001111
1111111100001110
1010011
10110110
100001
10001
1111111111011001
1111111111011001
1111111111110001
1111111111010000
1111111111110111
1111111111001111
1111111111111001
1010010101
1001110000
1111011000
11001111101
1110110101
1010110010
1011011101
100000001010
10001000101
1111110101100110
1111111111111101
111000100
1111111001010111
1111110110101001
1111111100011100
1111111000100101
1111111000110101
1111111101000101
11101
0
101000
101
1111111111011111
1111111110110110
100111
10010
1111111111101100
110
1001101010
10010
110101110
1110000011
10000011100
100010
1111111100111001
1111101110011001
1111110111101110
1111111000000111
1111111101110100
10000
1111111111111000
111000
1111110101011001
1111101101100110
1111110000111100
1111110011101001
1111111010000111
101011
1111111111001111
1111111111110000
1111111111110101
1111111111010000
11100
1111111110000111
1111111111011000
111110
1010100101
110011000
1111111001110000
1111111001111110
1111111101110100
1111111010100100
1100001
110010000
1111100100000011
1111101001000100
1111111100010011
11110101
10001000000
10100111000
110100100
1111111100100000
1111111010000111
1111111100100111
101101111
11100101
11111
1000
1111111111111100
1111111111110001
111001
1111111111001011
111101
10100010
101000111
1001011110
1111110000011101
1111110011011001
1111111111000101
111011101
1111110011101111
1111111100110000
1111100101010111
1111110110110011
11000000000
110100110
100001100
1111111101101111
10100
1111111011101010
1111111010100101
1111110111000011
1111111110011110
1101100
1111111110011001
1111111111010101
100110
10010
100100
1111111100011111
1111111111100100
1111110101011110
1111111100110111
1111111101110110
1111110110101101
1111110010111111
111100101
10001100110
111001000
1111110011100011
1111110100110111
1111111111111001
1111111110110001
1111110110111101
1111110101011011
1111110111011110
1111111001111100
1111110110001001
1111111110101100
1111101101100100
1111111111000101
111111101
1111111101101011
1111111110101011
1111111111111000
1111111111011100
1100001
1111111010101100
1111111000100110
1111101001010101
1111101100000000
1111101111111101
1111101101110110
1111101010111011
1100101000
1111111011000100
1111111010011110
1111111001010100
1111110000100010
1111111010011011
1111111010001000
1111110110101111
1111111000110000
10110011
10011111
1111111000110010
1111111110111001
1111110101110001
1111101110000011
1111110111101011
1111111101101100
1111111101111100
1111111111110000
11011
111011
1111111110001001
1000100
1111110010011001
1111110011000001
1111110111100101
1111110100101111
1111110001011111
1111111111011101
1111111101110001
10001000
1111111000000011
1010010001
1111101011011010
1111100111110100
1111110010111000
1111110001101111
1111110100000110
100000
111011
1100110
1111101001101010
1111110000111000
1111110100000111
1111111101110000
1111111111000000
1000000
1111111111011100
11
1111111101010000
1111111111011000
1101001001
11011011
1000010
1011011
1111111100101100
1011000000
1110100101
1111111100111111
1111111010010110
1111111011111101
1111111001111011
1111111000000011
101110010
1111110010001110
1111110000111001
1111101111100001
10111101
1111101111001110
1111101011101111
1111101110001011
1111110101101000
1100111
1111111111000100
1111111111010001
1111111110111110
1111111100111010
1111111011011111
1111111110111010
101100110
1111111110101010
1100110001
1101101110
1111110100111110
1111111010111010
1100110111
1111101110000000
1111101010001010
1111110100100101
1111101100101100
1111110000001101
1111110101000001
1111111001011001
1010011010
1000101010
1111111101110001
1111110101110111
1111110110011000
1111101001000101
100010111
1011110
1111
1111
1111111101110100
1111111101111010
1111111010010110
100000010
1001000110
1111111100101000
1111110111111101
1111111110010110
1111100111100111
1111111001100101
100101010
1111101110101011
1111100011000000
1010000100
1111111111000010
11000000
1111110011010010
1111111110100011
1101000011
10000011110
0
1011000
1111110101101110
1111110101011010
110001000
1111111111001110
110110
111011
1111111111011000
1111111110010100
1111111000111010
11101111
1000110111
1111110101000010
1111100011110011
1111101011101010
1111100000100000
1111101110111100
110110000
1010000101
11000001000
1111111111111101
1101111011
10010111110
11010101
1101110010
1111111101101010
1111000
1010000100
1111110111100111
10000100
1000001001
10110101
100111001
101101000
110010
1111111110000110
1111111101100111
1111111100100000
1111111011111000
10101100
1111111010110000
1111111111110101
1111110100100111
1111101110010001
1111101100100110
1111110111101011
1000001101
11110111011
10011100101
10010000111
11101000110
1111110010011110
10011010011
1111111111001110
1111111000000100
1111101111111100
10101000100
100000011011
1110000011
110101001
111100101
100111
1000111
1111111110010110
1001
1111111101100100
10111001
101000111
1111110111111010
1111100101101010
1111101011011011
1000010000
10001110
11010
1010111111
101111101101
11110010010
1101010111
1101001100
1111100101001010
111010011
1000000111
1111110000111110
1111101101111111
1101000
1100100001
111001010
10010000100
1010100100
1111
100101
1111111110110101
1010100
101100010
111100101
1111110110011011
1111110011001000
10001000
1111110101011100
101101111
1111111100101011
110011110
100011111
1111111010110100
11001111001
100010010101
10010100101
1110111000
1001110111
1111110100000010
1111101000011011
11110001
111101110
1010111100
1100110101
10111111011
1110001100
100111
111
10000
10010100
100001111
1101111011
1111101111010010
1111111010010000
110101101
1101111001
1111110110110000
1111101111000000
1101000010
1011000001
1010100
1000001
10001011011
10000100000
1001001111
1111111110111010
1111110111000101
1111110000101111
10100111001
1111111001111000
1111111010001001
101101100
1101010111
100001110
10000110
1111111111110111
1111111111101100
1001001
111000100
10000001100
1111111111001010
1110111100
100001101111
111001101
1111101111000101
1111110110100111
10000000011
11000001011
1000100110
10000010010
1011101010
1101111111
1111111101111011
1111111000110001
1001011000
1111110000110011
1111111010111101
11010011
1110011010
10010100010
10100101100
101001100
1100100
100000
1111111111111010
1001111
101111010
11111111001
1010111001
1000101101
11011001
101111010
100011000
1111110101110011
100110110
100111111
1010101110
100011110111
101100111011
10101001110
1111111000110000
11000101
1010010100
1111111111111100
1111111101110001
110000001
1110100011
1111101001
1010001111
10110010
1111111110110111
1111111111100111
1000101
1111111111110001
111100110
11001111111
1001111001
1001100011
1111001001
1111111111010101
1111101110011100
1111111100110011
1101111100
1111110000101101
10101001
1111110101010100
1111110101011101
1111111111110101
1111111100000110
10001110001
11111111
1011100100
1111111001001110
1111111000001000
11100
1111111110101000
1111111101110111
1011101
1010
101
11010
101101
101000
1100100110
1001111001
1001010001
11111000
1111101011000100
1111110100111101
1111110100010101
1111101001000111
1111011001110001
1111011100100100
1111001111011000
1111011010110110
1111111000100000
101101001
11011101
1111110110001000
1111111001011000
1111110101101111
1111101101110110
1111111000110000
1111110111111110
1111111111111011
10111001
1111111111111000
1111111111111001
100
110001
1111111110000010
11110100
111100101
1111111000100001
1111110110101010
1111100101001110
1111100110111101
1111101000001100
1111010011111101
1111000111110001
1111010101010111
1111011000000100
1111101100110010
1111100010110010
1111101111110011
1111111001000001
1111110100010001
1111101101100011
1111101111111100
1111101111111000
1111110010010011
1111110101110011
110101
1111
1111111111011011
1111111111001100
1111111111110101
100001
1111111111100010
1111111110000100
1111111100101100
1111110001100000
1111100101011010
1111011110001100
1111010110010010
1111010111100001
1111010101000011
1111010100011111
1111010001001101
1111001101010111
1111010001011101
1111011100101100
1111011100011111
1111101000110101
1111101011100010
1111110101011101
110111101
1111110110100001
1111110011001010
1111111001101110
1111111111111110
101100
1110
11100
100110
1111111111101110
1111111110111001
1111111010110100
1111110111110011
1111101100100000
1111011110110101
1111011001110111
1111011101011110
1111100011000111
1111100101000110
1111101011000110
1111011100110100
1111011001001110
1111101001001011
1111110101101001
1111110000111010
1111100111000001
1111110010101010
1111111010000001
1000010001
1111111011001100
1111110111111000
1111111111000111
1111110
1010010
100000
101100
11100
1111111111110010
1111111110110101
1111111110011000
1111111010001110
1111110111001000
1111110011010100
1111110111010000
1111110000000111
1111111001111110
1111111000100001
1111110111001110
1111110001100101
1111110100100101
1111111001010110
1111111111010001
1111110111101101
1111101001111100
1111101110000100
1111111000101000
1111111001100101
1111111001011111
1111111100111111
0
101111
111
1111111111101110
100010
0
1010100
1111111111101011
1111111110111001
1111110100110001
1111110100111011
1111111101001100
1111111101110101
1111111001110001
1111111101010101
1111111111000110
1111111111000001
1111111110100000
1111111110111111
1111111110110011
1111111110011100
1111111011100110
1111111010110110
1111111011000110
1111111001111001
1111111011101111
1111111110110000
100100
1011001
1111111110111011
1111111111111101
11010
1010
101001
100111
1111111111111000
1111111111110101
1001000
11010
1111111111101010
10
10011
1111111111001101
111000
11011
1111111111111100
1111111111000100
1111111111001010
1111111111101001
1111111111100111
1111111110110001
1111111111001111
1111111111110001
1111111111001111
1111111110110111
1111111111100011
1111111110101111
1111111111111001
1111111110111101
1010
