10010
1111111111100001
10001
1011
1000
100110
10011
1001
1111111111111001
1111111111110111
1111111111100100
1000001
1111111111011111
110110
1111111111101010
111010
1100
101111
10011
1111111111110001
1111
1110
110100
1111111111101000
1101
1111111111101010
110
110001
100
1111111111110010
1111111111010100
1011
101110
1111111111001011
1100
1111111111011101
11110
1111111111011110
1111111111111100
111011
1010
11
1111111111100000
101
1111111111010011
100110
1000
11100
1111111111111001
1111111111101011
1111111111100001
1111111111100111
1111111111011110
1111111111010110
1001
11001
1111111111001111
100010
11010
100
1111111111110001
1111111111101000
110
1111111111101111
1111111111101001
1111111111001010
1000101
1
1111111111010111
10010100
111111
1111111111001011
1111111110000010
1111111111110000
101000
1010100
1111111110111011
1111111111101000
1000001
1111111111110110
1111111111110111
1
10011
1111111111011010
1111111111011101
11011
11101
100011
1100
1111111111100001
1111
1111111111101100
1111111111001111
101011101
11110010
10100111
1111110011110101
1111101111100110
1111110101110001
1111101001000100
1111100111110101
1111110001111010
1111110101001011
1111110110111011
1111111110110010
10
110100101
100101101
10000011
1111111111010101
1111111111101010
101000
0
1111111111011111
1111111111101001
1111111110111111
1111111111100100
1111111101111011
1111111101111011
1111111111011111
1111111100001100
1111111011011010
1111111010110101
1111110011101101
1111110010011010
100101
1111110101010100
1111100101000101
1111101000111010
1111101110000011
1111110101100001
1111111001000010
1111111001010010
1111111101100101
11110111
101011001
110111110
1111111110111001
1111111101110110
10010
110010
110011
1111111111111110
1111111101110011
1111111110000000
1111111001011001
1111111011101101
1111111011000101
10001000011
10011100000
1000011101
1111101000010011
1111111000110111
1111101001101010
1111110011011110
1111110011101010
1111100111111101
1111101000011111
1111110010011011
1111101001100110
1111011100100110
1111010110101011
1111100010001011
1111111010010100
1101
1111111101100110
1111111111011111
1111
1111111110111001
1111111111110111
1111111111110000
1111111100000101
10110011
10001001010
10011000000
10001011111
100001000101
1111111111000001
1111111011111111
10110001
1111110110010101
1111110110110111
1011110011
1110011
11010010010
1101000101
1111110011001001
1111110000100100
1111100010011111
1111101111101101
1111110100100010
1111110101111000
1111110111011000
1111111000111101
1101010
1111111111011000
1111111111111000
1111111111101110
1110001
1000001110
1101110110
11111101
1011101111
1111111111110100
1011000100
10100100001
1110101111
1111111110011100
101110011
111000
1111111110100010
1111101001011001
1111111101010001
111001101
1111100111011101
1010110000
1011110011
1111110000111110
1111110001101011
1111111100101011
1111111110100011
10101110
111001101
1111111111110101
1111111110111111
1000001
101111110
110110111
10000001
1111111011111110
11110110
111101100
11100100110
101010100
10100
1100000000
10011101111
1111110011111011
101001001
1111111110010010
1111101011111101
1111101100101001
1111110110010100
1111110010001100
10001000
1111101010000111
1111101101010010
1111110111000000
1111111000001001
1111111110001001
1111111010010011
1111111100111100
1111111110111010
110010
1101000
101001110
111010100
11010111
1101010
11111
10
1111111010111100
11111000100
110101100
110001000
10011010001
100101010
1111110001100010
1111110111100111
100010001
1010100100
1111111111010111
111101
1111100
1111111000000110
1111100110011101
1111100110000111
1111100010011100
1111110010101000
111010111
1111111111010000
1000010
11001011
100000100
1001111100
1100111000
1000100111
1111111111111111
1111111101101100
1111111110
1111111100011000
1111110001101101
10000010110
100000000100
1101111001
10010101001
10101110000
10001110001
100
10000101110
1111111000011101
10100110
1111110000010011
1111100011001101
1111100011110111
1111110110000111
1111111110110100
1011000
1111111111101101
10010001
110111010
11011011
1111111011010010
1111111011010011
1110101111
11010110100
1000100011
1111111111101001
10011101100
10110101000
10100101011
1101100001
1101010
1111111111101101
10010000110
11010111011
11001100
110110101
110001111
101101110
1111111110110010
1111110101000010
1111101010010101
1111110100010111
1111111010110000
1111111111110111
0
100011
10111001
1111111010110100
1111111100110010
11111000
10111010
10001100111
100110000
1111111110100001
10000101101
10101000110
110001011
111100001
1111101101001101
1011110100
11001111100
110100001
10001010100
11110001
1111111111110000
1110011
1001011101
1111111000101110
1111110100100010
1111111000000111
1111111111100011
101011
1111111111111011
1111111111111011
111100
1111110110001110
1111111101011010
10100010
1001011010
1100011000
1001100101
10011010
100001111010
1111111110010100
1111110100100001
1111110001111111
1111110101100111
1101010000
1001100000
1111011111
10110100
10010111001
1111111101110001
11010000110
1000111110
1111111011011100
1111111011000100
1111111111010000
0
100011
1111111111111010
10010
10000001
1111111010100000
1111111001011100
1001111010
1100110000
101000100
11001110010
11110010
10100111011
11000101010
10001111100
1111111001010000
1111100001011110
111110010
1111111101101100
1001011110
1101100000
11100111000
11110111100
10001100101
11010010010
10001000111
11100011
1110110
110111
1111111111111110
101011
11100
1110010
1111111111101100
1000010
10101101
1000110010
1111110111011100
101001010
1000010000
11011011101
1111111010100000
1111110010100010
1111100111001001
1111111010100010
100001010110
1111111100011100
100110010000
10111000011
10011010111
10101100001
10000000000
10110000011
11000000000
1100100
1000001
110
1111111111110011
1111111111110000
10010
1111111111001110
1111111011000000
1111111111010100
11111
10010011001
1011111101
11000001
1111110100001011
10111011
1111101000001000
1111110101110111
1111111010100100
1111111100111001
11010010101
10111010
10010101100
1011100011
1110010000
11001110100
101000110
1111111111101110
101001001
11100
11111
1010
1100
1111111111111100
1111111110011010
1111111110111100
1111110110111100
1111111001001010
1111111111001100
100010001
1111111111000011
110101111
11100010
110100011
1111111011010110
1111110110101111
1111111001001010
11001101
11100011000
10100100111
1010111100
10100000010
1111111011000001
1010110101
1111111001011111
1111111010100110
11000010
111001111
110001010
1110101
1111111111001011
11011
1111111111111001
1111111111110011
1111111000011110
1111110101100001
1111
110001000
11011011
110000111
1111111100000100
1111111110010000
110000010
1111111000111111
1000101011
11001000110
11101010111
1111111100010101
11110100
1111111100000011
1111111100011110
111111001
101110010
1111110110010111
1111111011100100
1111111110001010
10110011
1110110
1111111110110001
110011
101
1111111111001000
1111111011011000
1111111010000000
1111111110101000
100101111
1011110001
100111001
1101000101
10000100010
11110100110
11000011011
1111111011100101
100100010100
101000111
1111111000001110
1111110111101000
1111100111111100
11000110
1000100
110011
1111100101011100
1111101110001100
1111111000010001
1111111101100111
1111111111101000
1111111111111010
10011
0
1111111101111010
1111110110001101
1111111001010111
1111111100100100
1111110100110001
1111101111011101
1111110001101111
1111111110101001
1111110011111011
1110101111
1000111
1111101001111000
110100
1111101010000101
1111111010011001
1111101000000101
1111110010000000
1111110010100000
1111010101000011
1111100001000100
1111010111111110
1111100111000010
1111111011010010
10111
11100
100010
1111111111100111
11011
1111111011100100
1111110101011000
1111111011100011
100110111
1111111010011010
1111110000110011
1111101001001111
1111101010101100
1111010100100001
1111100000111000
1111101010001110
1111010010011100
1111000111111010
1111010110010011
1111110011010010
1111010101010001
1111010011100000
1111001000000100
1111001001110011
1111011100010000
1111011111010000
1111101000110101
1111111101011000
1100100
1111111111101111
1111111111011010
1111111111011111
101110
1111111101001101
1111111000001011
1111111001101101
110011010
100001010
1111110110100011
1111101110000111
1111011111010111
1111011111111000
1111001000000110
1111011101101101
1111010100100000
1111100101110011
1111101010110001
1111001101011001
1111010110001000
1111101000000011
1111010111111111
1111100000001001
1111100000110101
1111101100100110
1111110011000110
1111111001110100
1111111100111111
101011
1111111111001110
1111111111001000
100000
1111111011000011
1111110110011111
1111111001111100
10010000011
10000011000
110001100
111110111
100011010
1111110100011000
1111101000011000
1111100011011111
1111011111000001
1111011101111110
1111000110101010
1111001000111001
1111110000100100
1111101100101111
1111100111110001
1111100111010110
1111101110100010
1111110100101011
1111110110001101
1111111000010110
1111111011111011
1111111111101010
11011
1111111111000010
10101
1111111100101001
1111111000011001
1111111001001110
1110110101
1111111100110000
1111110000001100
1111111010000100
1111111010011110
1111100001001001
1111101011100000
1111011000101000
1111011111100111
1111100101111010
1111011100110011
1111100110000111
1111111000011011
1111011110001000
1111100110010011
1111111110100001
1111111011111001
1111111000111100
1001101
1111111100000001
1111111111011111
1111111111011100
1111111111011011
1111111111111001
1000010
1111111111100000
1111111111001010
1111111111101111
1111111101000001
1111101010110111
1111110101011001
1111101011111101
1111100101001011
1111100010001100
111001000
1111110111111001
1111101011111001
1001101011
10111
1111111011100000
1111110100001000
1111110001111101
1111110110101110
10111010
1100000100
1010000001
1100111
0
1111111111011100
1111111111010110
11111
10011
11011
0
1111111111101110
101101
1111010
11110100
110111110
110111101
1000010101
1111111011011010
1111110111100110
1111111100110000
1000101111
11001010001
1111100000
11000110
1010101
1111111110110101
101001100
101001110
11010001
110100
0
10100
1000
110010
10101
1111111111101001
1111111111001101
110
100
1111111111101110
1111111111101111
11000
1111111111011101
1111111111110100
11010
111001
1001
1100
1010010
1101111
111111
10000100
1100100
10100100
101110
1111111111111111
1101
1001111
1111111111111110
1101
1111111111111110
10
101
