1111111111101001
1111111111011010
11101
1111111111010110
11011
1111111111101111
11000
1111111111111111
100001
1111111111101001
11110
1111111111101100
1111111111101010
1111111111111000
1111111111010000
1111111111111000
1111111110111110
1111111111111011
1111111111110100
10110
1111111111111110
11
1111111111000111
1111111111101010
1111111111011000
111000
11010
100111
10011
1111111111110111
1111111111011110
1010
1111111111111010
1111111111111011
1111111111001000
111
1
100
11110
11111
101001
100010
1111111111101100
10001
1111111111011001
1111111111111101
1011
1001
1010010
110110
100110
101
1111111111110000
1111111111101000
1100
1111111111101110
101
1010
1111111111101111
101101
10111
1111111111001010
110
110
1100110
100110111
101010010
1001010011
1001111111
110000001
111010001
100101101
1111111101001001
1111111101010001
1111111011001111
1000011
11010111
10011010
1011100
11010
101101
101001
1111111111010001
1111111111110110
1111111111111101
1111111111110110
10100
1111111111110110
111010
11000
11111101
111001111
1110000101
10010011010
1111000000
10101111111
111010100
1111110101010110
1111110010000110
1111101010011110
1111100000110110
1111100001100011
1111101110100000
1100100001
11100100
100001
110100
10100111
10111100
11111
1111111111100100
1111111111000110
100000
1111111111101000
1111111111100101
1111111111100100
1111111111100111
100000000
111011110
1011001110
10010110101
10100101010
1010111101
100001101
10011100100
1111111111000100
1111110011110111
1111010110101010
1111010100101101
1111011100110011
1111100000100010
1111111001111000
11011100
1111111001010100
1111111011011001
111111000
1111111111001100
1111110111111001
1111111100010110
110001
101111
10110
110
100001
1111111111110000
100000010
1011110101
1111011011
10010100101
10111001101
11111010100
1101000100
1001101010
1111011010100001
1111001110111101
1110111110101011
1111010111001000
1111101111000000
1011101001
1000100110
10100000
11101001
110111101
10001100100
10001000110
1001011
111011
111000
0
1111111111111000
1111111111000001
1111111111110100
1111111100100110
1111111011010001
110000111
10000101111
11011001011
11101100010
1101000101
1111111110000001
1111110010111011
1111010100110101
1110010101011001
1110111000110011
1111111110011010
1001000110
10100100011
1111110101
11111111000
111001
1111110111011100
1111111011011011
1111110110110011
1111111101100111
1111111110011101
1111100
11010
1111111111100000
1111111110011111
1111111011101111
1111111000001111
1111111110101111
1010110101
1100010000
110
1010111010
1111101101010101
1001000110
1010010010
1111010011111011
1110100000110110
1111101001001000
100000000100
10000001000
1111001110
11000000000
10001011010
100100101
10110011
1111101001011110
1111110001001110
1111111101001100
1111111100110110
1011100
1001
110111
1011111
1111111110110111
1111111100111000
10110101
1111110110010111
1111111110001111
1111110110011100
1101111010
11000011101
1101000100
1111101111100101
1110111101010100
1110011000101110
101111000
100001111111
1011100001
1111111100001001
1011111101
1111100101100110
1111111111111100
1111111111111100
1111110011001010
1111100110101011
1111110111100010
1111111101101100
1111111110001000
11
1111111111000111
10000001
1111111101110001
11101001
1111111111100001
1111101101011011
1111101110000111
1111111010000010
10001101100
1001010111
1010011101
1111111011011001
1110100110000100
1110111111010110
100010000010
110011111110
1010010010
10001110001
110001111
1000101
1000110010
1111110110000000
1111011100100010
1111101101100110
1111110101001100
1111111001101110
1111111111100010
111000
11110
1000110
1111111010111111
10011011
110110010
1111100111010011
1111110101110111
1
1111111001010011
1111110101111010
10010110010
1111101111111011
1110100111001110
1111010010011100
111101110
100101
11001101101
10000100101
1111110101000100
1111110110001000
1111101101010110
1111011110011011
1111101010000111
1111110111001001
1111110110011001
1111111100010111
1111111111101111
1111111111000011
1111111111000110
100001
111100
1111110101000110
11111011
1111101001100010
1111101000110110
1111110100011101
1111110001011110
1111000001
10100101
1111100011100110
1111010001100110
1111111010010011
101111001
10011000001
1111101001010111
111011000
1111111010000101
1011110
1111111110001100
1111100000011000
1111111001110011
1100001
110010
1111111110101101
1111
1000111
1111111110101101
1110001
1111111110011111
1111100111111000
1111110011011101
1111110100011111
1111111101000011
1111111001001111
1111101110001111
10100001101
1110010001
1111111101111111
1111111111011110
1111101110100000
1010110001
10010100111
1000001011
1000011011
1111111011001111
1111110101000101
1110010011
1111111110010111
11001010100
11010100100
110111101
1111111110101010
11001
110000
1111111111101101
1111111111110001
1111111010001110
1111101100111011
1111110111001000
10110000110
1111110110001010
10110110101
1111101101011100
1111111100111000
11011001
1011100010
100000010
1111111100001111
1111110000011100
1111111110011011
1001100101
1000001010
11010001
1000000011
1111111100001010
1101011110
100110001110
10001110111
101011000
1111010
10000000
1111111110111111
11001
1111111111001100
1111100
110100110
1011010011
1111111001011101
100001001
1001000
11100010010
10010111111
1001000011
1111111001010111
1111111010110101
1001000000
11000011001
1110111110
110100111
1111110101110011
11101001000
110101111
1100101
110100
1011100110
111100110
100011111
1001000
1111111111011101
1111111111100111
1111111111111101
1001001
1010011010
1110100100
1010111001
1011001000
11011000010
10010001
11001100100
111100110
1111110001110000
1111111001000010
11010100001
1111111100001110
1101111100
101011111
1001110111
1111111100101010
1111101010100110
1111100100011111
10010
1111111001001000
1111111110000111
1111111110111111
110110111
10011010
100010
1111
0
1111
100001011
1111111111110111
1001110111
10000110010
11111111111
10010011
1100100101
1111111000111101
1111111010000011
1010110010
1110010111
1001001111
1001010001
1100100101
100110
1101110
1111111011000100
1111110101111001
10111101001
101110100
1001111101
1011010000
10000100111
100011001
1111111111111111
0
1111111111101110
100101
1111111110000010
1111111100001000
1111110101101010
1111111101101000
1111111110100011
1111111100100001
1111110110000101
1111110011001110
100001000
1111101110100110
1111111011111000
11110100
1010011000
1111111101100011
1111111010111010
1110101011
1111101100111010
1111100111
1111101000
1110101000
110001001
1111111101011110
1010100101
0
1111111110101111
111011
10010
11010
1111111101111011
1111111001101011
1111111101111111
1111111010101111
1111111001100110
1011111011
1001110010
1010101001
1111111010101101
1111110100100001
1111110011000001
10100110
11100011
1010110100
10101000100
1100111111
1111111101101010
10100110
1111111100000100
1111111111101011
100111011
101111100
111100001
10010
10101
1000
1111111111100111
1111111111001010
1101
1111110011011111
1111101111101110
1111111000111010
1111110111000001
1111111100110011
1111111100001101
1111110011010101
1011010
1111011110101011
1111111100110000
1111111110110000
10010000001
11010100001
101111101
111110111
1010011
11001100
1111111110101011
1010000001
1101011101
1010000000
101001010
1001001
1010
1111111111010000
111
1111111110100011
110111
1111111010011110
1111110111010101
1111110110011011
10100100000
10010100000
1111110110000101
1000000101
1111111001011111
11110
1111111001011010
1111111010111111
1110011101
100000011011
1100100000
10110011001
10101011111
1100010110
100011100
101010011
1101000010
1010010011
1111111111001110
10001011
1
11
10001
1111111110001100
1001
1111111111100011
1001000010
101110101
10000001011
11001010101
1111111000111100
1111110110100101
1111111101001011
1111101000011010
1011100
1111111010011101
1111110110010010
1101001101
1100111011
1111111000010010
1101100000
1110111
1001011
100100111
10001110111
1010110000
1111111111011011
11010
1001
0
101
1111111110101011
1111111111011111
100111110
1111101110
101000100
1111111100000101
1111111010100100
110011
1111111101010010
100111001
1111111011000101
1110101
1111111001001000
1111110000010011
1111100011111101
1111100010001000
1111100010001001
1000110001
1111111101110001
111010000
1111111111011001
1111111100110001
1111111110001110
1111111110111001
100101
11
1111111111110000
111000
1111111111110100
1111111101101110
1000
10111110
11110011
110001100
100101100
1111101001100110
1111110011101110
1111110100011110
1111111001011110
1111110001111001
1111110111011111
1111110101010100
1111011101100101
1111101111110001
1010011111
1100000011
1000100100
10010101110
1111110101011101
1111110111010100
1111111010101000
101111
110010
1111111111100100
1111111111001100
1111111111011101
1111111110100000
1111111101111101
1111111100100110
1111111001110111
1111110101001001
1111111110100100
1010110
10001000
1111110100101111
1111101111001010
1111111100111010
10011000010
100011001
1111111011000100
1111110111101100
110101101
1101001111
11100
1111100111111011
1111111100111110
1111110011101110
1111110111100111
1111111101110001
1000101
1001001
1111111111101011
101000
110011
1111111111110001
1111111111101000
1111111111011000
1111111110010110
1111111011001010
1111110110000100
1111110010010100
1111110100110100
1111110111001000
1111111010110000
1111111010010000
1111111110100001
1111101111001000
1111110010100101
1111111110000101
1111110101111001
1111111110000010
1111011010100111
1111101000101000
1111110010111011
1111110010011110
1111111011100011
1111111111111100
1001000
10101
1111111111011110
1111111111100100
1111111111111011
1
1011
1111111111100111
1111111111101001
1111111101110000
1111111110111011
1111111100101000
1111111100010100
1111110111101110
1111110101110011
1111110111010010
1111100111110111
1111100111111110
1111110001010000
1111111100000011
1111110010111100
1111101110100111
1111101101000011
1111101110001000
1111110000111110
1111111011111110
1111111111011000
101
1111111111110010
1111111110111110
100001
101
1111111111110101
101001
110
10000
1111111111110101
1111111111101010
1111111110000000
1111111101100110
1111111111101010
1111111110000001
1111111111001111
1111111110001001
1111111111001010
1111111011101101
1111111110110101
1010
1111111110101111
1111111100000100
1111111100100000
11
1111111110110001
1111111111110000
100001
10100
1111111111011110
1111111111101011
10100
