1010
10100
1111111111010110
1000
10101
1111111111101011
1101
11111
101000
11101
1001
11010
101001
1111111111111000
10000
1110
1111111111111011
1111111111101010
1111111111110001
1111111111100001
1111111111011010
1111111111110010
1010010
1010
100000
1011
1111111111110100
1111111111111000
1111111111110001
1111111111111101
100
1111111111101011
11011
1000010
1001000
10001111
10100001
11110
111011
111110
1110010
110111
1111111111111101
101
110110101
10010101
10010
10001
1111111111111001
100
11100
1010100
1111111111011001
1111111111111111
1111111111101101
0
101011
10
1111111111001100
1111111111000101
101
1111111111111101
110
10111010
11010101
100000010
100110111
1000101110
1000110010
1000001000
110111000
10110110
111110111
10100010
1111111101011011
1111111011101111
1111111110001110
1111111111110001
11
110
1011010
101111
1101
1111111111110111
1011
11010
1001
1001100
11100
1100
100000000
1001000101
1111010001
10001110010
1110011111
1100001111
10101100
1011001011
100001010100
10000000110
10100000010
110011100
1111111110111111
101100
1111110101000001
1111110110101001
1111111111001011
111111011
1000000001
110010
11111
1111111111101100
11100
1111111111101110
1111111111100111
1001
1111111111011010
100101
101001001
1100011110
10100000100
11001101110
100000001011
1001000
1111110101101111
1111001010
10000011101
1010111101
1111101110110110
1111111111111010
1111101010110011
1010000
1111110011010111
1111111101101000
11100111
11000101
1111111111010010
1111111011010101
1111111101010010
1000100
10100
1010
11011
1111111110101010
1111111110001111
1111110110100110
1111111101111100
100110100
1010110001
1101001
1011110101
1111111111110000
1110001
10101111011
10100101110
10110110111
1111110100111000
1111111111100011
1000000011
1001010101
100000011
1111111010001001
1111110110000110
1111110101011111
1111111111100000
1111111110110000
1111111110101001
1111111110100101
1111111111110110
1111111111111110
10110
1111111100000100
1111111011100101
1111110011000101
1111101000011001
1111101011111010
1111011001010100
1111100000001111
1111100010101011
1111100110100010
1111111100011010
110100000
10111
10011100111
10111100000
10011100
101100
1111110000011000
1111110111011010
1111110010100101
1111110110001101
1111110100000101
1111110000100111
1111110110101010
1111110101101001
1111111011110010
1111111111010011
111
1111111111111110
1111111011110010
1111111010000000
1111101001001000
1111100110001111
1111101100001010
1111101001100010
1111110001001001
1111101010011001
1111100
1111101101101001
10100100
10011010000
10010110111
111011101
1111111111111001
1111110101100000
1111100101111110
1111101110100100
1111101001110010
1111111001001000
1111101001101001
1111101011000000
1111110110110010
1111110111111101
1111111110101010
1001
1111111111111011
1111111111000000
1111111101100001
1111110111010100
1111100001110110
1111011101101111
1111110001100000
1111111001011101
1111110110011110
1111110101110110
1111111110001111
1111111011110011
1011011110
10000010000
1010000
1100111000
111100100
1111111000100111
1111100011111101
1111110111110101
10000101
1111111000110000
1111101110111010
1111100000101110
1111101001100100
1111111001111110
11011
1111111110110110
101111
1111111111111000
1111111111010000
1111111011100001
1111101110010101
1111100100011100
1111101000110110
1111100000100101
1111111001001010
1111111001010101
1111100001000001
1111101110011111
1100011100
1010001110
1010000110
1111111100001000
1111100011010011
1111111000001101
1111111000010100
1010111101
1111101110000011
1111101111110001
1111111010111001
1111110011011101
1111100101011101
1111110010111111
1111111000111111
1010011
11
101111011
10000011
1100111
101000010
1111110001000011
1111110101101101
1111111111111000
1011110
1111100110011110
1111110100111110
1111110000010111
1111110011100000
10011111111
111000100
1111110011011101
1111111011101111
1111110110111100
1111101010111100
1111110010000011
1111110110001001
1110101
1001001100
1111111101110100
1111100110100010
1111110101011100
1111111101000000
1011
1111111111110011
1111111111010111
1111111101101101
1111110001100000
1111111000001100
11001
1111101101100111
1111110000010001
1111111010010010
1111110111001011
1111110000010010
1111101111001010
1111111010000000
1001011100
1111110000101110
1111110110010111
1111101101000110
1111110100101000
1011010000
11
1111111011001010
1111111011010011
1010001001
100010101
1111110111101000
1111111011111010
100010
101111
110000
100010
1111111100101101
1111101110110111
1111101101010000
1111110110010101
1111101111101010
1111101001111101
101101110
1111100011001001
1111100101111010
1111110001111111
1111111001001010
1100111110
1111111010000111
1111111110001011
11111111000
1101101111
1111111011011010
11010110101
10001010000
1111111011
10000001101
11011010100
111110010
1111111110010110
1111111111100011
1001
1111111111010001
1110
1111111010110001
1111110000010011
1111101001000101
10010011
1000111100
1111101011010001
1111111000100111
1111111011001101
100111
1111111111101100
10001010010
1111111100000110
1111110110100001
11001001
0
1110010010
1111101011111111
1111110111001001
11010100010
10110001110
10101111001
11100001010
111100000
1011101
10010
1111111111011110
11100
1111111111101100
1111111100011011
1111110110010010
1111111101110011
1011100011
101111111
1111111100111100
11001011010
10011111110
10001111101
1111111010101110
1111111000001110
1111100111111111
1111101110010001
1111111100010011
1111101111000000
1010110110
1111100010100000
1111111001111111
10111010011
10100101011
111100110
10010011000
100001101
10100001
110110
100101
111
10001
1111111110101010
1111111111101000
10111011101
10100010100
10111010100
1100110011
100010100001
11100100010
1111111001001111
1111101101101010
1111100010100110
1111001000010000
1111010010110000
1111110010000001
101001010
1111110001101101
1111110110001001
1101100101
100111110
101001111
11010101
1000110000
1000110100
101001101
100111
1001
1
1111111111011110
10110010
1111000110
11101011100
10100000010
100010010100
100111001110
11010110111
10100100011
10110011
100011010
1111111011101010
1111101101011111
1111111000100010
1111110110110001
1111110110011000
111
1111010101
10010101001
1010101100
1101001101
1100010010
1010101
1001110111
111000100
1111111111111110
11
10011
1111111111000111
11101
10000000010
1101010100
1111111110001000
10100001101
11010010011
10100000011
100110100001
10110010111
1111100001
1111111010000000
1111110000110010
1111111110001111
100111111
1111111001011100
1110100
10011100001
1110111000
1111111100001001
1100100000
1111111100110000
1111110010110101
111110011
101110
1000111
111001
1001
1111111110000101
100000101
1011000011
10011110100
110111100
10011101111
11000001101
11011011010
11011000110
1000000001
1000111011
1111100111000100
1111110001011100
10100110100
11001101100
11100111
1101100010
1111111000000101
1111111101011000
100010110
11000100011
1001000100
1111111110100001
1001101001
1111111100011101
1111111111111001
1111111111111000
1110
1111111111001110
101110110
10011101101
1110110110
1011111011
1001100001
10100011011
1111111100100111
10001111
11101110010
1100101000
1111110011010101
10001001
111101010
101101100
110001100
1111110110111001
1010000
110101110
1001111011
10111010000
101010111
1011111010
100100011
11111
1111111111101011
1111111111101101
100100
1111111111011100
1000001011
1111100010
1110001
1100011101
10101011011
1111001010
1111110111011111
111000110
11101101000
10010100000
1111111011000110
1111110001011111
11001001
111100111
1111111011100101
1111111101010111
1010101010
1010000001
10000001110
111001111
1001101111
1000101111
10011110
110011
1010000
100000
1111111111100010
1111111110111001
1100000110
1001101010
100010001
1010010101
1111111110100010
1111110010110001
1011010101
10100101000
10100011101
10100011011
1001010000
1111111110010101
1111111100111111
1111111101100101
1111110000000100
1000
111101
1111111011001101
1111110110000111
1010111011
110101001
110001101
1110101
11011101
1111111111010111
100
1110
1111111111100010
11011010
1000001
1010011111
1111101111
1111110101111011
1111110101010001
10000010
1111001010
10111000
1111000010
11110110110
1111111000110111
100010001
111010100
1111110010101110
1111110011111011
1111100100000100
101101
111010101
1101001
10101
1111010
1111111110101010
1111111111100100
1001100
101001
101
10111
1010110
1111111000001000
1111111000010001
1111111101101010
1111110111111001
10101001100
11001101111
10001110101
1000010110
1111111111001101
10000101110
1111111100010101
1111111011011111
1111110001000101
1111101101001100
1111101101111111
1111110011000101
1111111010110100
1111111111010101
1111111110011100
1111111100110110
1111111100101110
1111111110110010
1111111111000111
1101
1111111111100100
1111111111111110
1111111111000010
1111111110101110
1111111011111101
1111110100110010
1111110100001000
1111111100010111
101100110
1100010111
1111111111001011
1111110101111101
1011111101
1000001000
1111111110010001
1101001010
1100010100
1111101000001001
1111101100011000
1111101001101010
1111100101111010
1111110010011010
1111110101001011
1111110110011011
1111111100100000
1111110
1010000
100100
1111111111011001
110101
1111111111111111
1111111111100010
1111111111010001
1111111001001111
1111110111100101
1111110001100100
1111101010111100
1111101001000010
1111101010100111
1111110010010101
1111110010011000
1111110001100001
1111100010001111
1111101001101011
1111110000010010
1111101111000100
1111101011001101
1111110010101101
1111110001010011
1111110110001111
1111111010001111
1111111100110010
1111111110110001
1001101
1001011
0
1111111111101100
1
101001
1111111111101001
1111111111110001
1111111001110101
1111111001001110
1111111000001011
1111110111111101
1111110111001111
1111111000100001
1111111000101011
1111111001001111
1111111010000011
1111111001000110
1111111101100010
1111111111101110
1111111100011110
1111111110000011
1111111111101001
1111111100111000
1111111011100101
1111111110000010
1111111111110011
1111111111110010
1110
1111111111111010
1111111111101001
1111111111100010
1111111111010111
10010
10111
1111111111110100
1111111111110110
1111111111011001
1111111111100001
1111111111011000
1011
11
10
1111111111110100
1111111110100110
1111111111100110
100011
1111111111011001
1111111111000101
0
111110
1111111111101101
1111111111011101
1111111111010010
1111111111011111
11011
1111111111110101
1111111111011010
1010110
