1111111111010000
1111111111101000
1111111111101010
1111111111101100
1111111111111001
1111
1111111111001000
110111
100111
10100
1111111111101000
1111111111101001
11001
110
1111111111110011
1111111111111110
10011
1111111111100001
101
1111111111111000
1111111111001001
11000
1111111111001110
1111111111110100
1111111111101110
1111111111010001
1111111111111011
100
1111111111110001
1111111111111000
1110
11001
10110
10111
100100
1010000
1001111
10111
111000
10010010
10100001
110101
1110110
1100101
10010001
1100000
110110
1000001
1111111111111100
111001
100100
1000010
1111111111111101
101011
101
1001
111
1111111111001011
1111111111011111
100001
1011
111
110100
10101101
11000101
10111000
101010000
101011111
1010011011
1010001011
110100100
1010100101
10000101010
1001000001
1001100011
100011111
110
1111111111101100
10001000
1010000
11110
1111111111001001
10110
1000
1000111
101
110000
110
1000100
1111111111110101
1000000
101011010
1100011011
1011000010
1101001010
101000001
1110111101
11100100011
10011001010
10101100010
1101000100
10000
1010100111
1011010111
1000010111
1000011101
11000011
110100010
100000111
1111111111010110
1001
0
1011101
1111111111110110
1111111111111111
1111111111111010
11010
1111111001100111
1111110111101001
1010110
10010110
10110011
10001001010
1111010010
11001000
1111111101011010
11110110
1101011110
1011111100
1111111111101110
1111111011101000
1111110101000110
1111111110100110
1000001010
1000
100101010
100100010
1111111111111101
110101
1000
1100
10100
1111111111100000
1100001
1111111110111001
1111110100001101
1111110101100011
10100100
1111110111000010
1111110100111101
1111101110000101
1111110111001010
11010101
1001100110
110100010
1111011
1001000111
10100111100
1111111001010110
1111111000100100
1111111010100010
1111000001
110111010
101101
1110
1111111101010001
1001
1111111111011111
1111111111111110
11001
1111111101111010
1111111100011000
1111111100000010
1111111000001001
1111111001110101
1111111101101000
1111111010000101
1111110111111110
1111110111110010
1001010000
11101110
100010010
1111011100
10010010001
1100101111
1011001
1111110011011010
1111110110010101
1111100101100110
1111110100110000
1111111100101110
1111110111001110
10010110
1000110000
1111111111011001
110011
1111111111101010
100010
1111111010000010
1111110101100110
1111110100100111
111000
1111110100101111
1111111100011111
1111000110
11011100
11100110011
1111001010
1111110001001100
1111110000001110
1111111110110101
10101011000
1100110011
1111001
101011001
1111110111001111
1111110001111100
1111110011001001
1111101100001101
1111101111110011
1111111011101001
1111111111111100
1111111010111100
11010
11
1111111111010011
1111111000010000
1111110011100101
1111110011011001
1111111000001111
1111110101110010
101111101
1100110101
1100011010
1100000100
10000011
110101101
1111101101001000
101010
1010001011
10110100101
110011111
1111110011010100
1111110101111000
1111111111111110
1111101100000111
1111111010101011
1111101100110110
1111110011000011
1111111011111110
1111111101100011
10111
1001
1111111101111001
1111111010100100
1111101110110011
1111101110101100
1111101100011101
1111111001010010
10011001101
1010101101
101110011
1111111110000111
1111110001
111100101
1111101111011010
110010000
110011000001
11010010110
1111101011110001
1111011111010011
1111100101111000
1111101010010011
1111011111011000
1111110100001010
1111110001010001
1111111100100100
1100100000
100111100
1000110
1111111111111100
1111111110001110
1111111010111001
1111110001101010
1111101101001111
1111101111111010
100000
1111110111010101
1111111011001110
1111011111
1111100101
1111111110101100
100101011
11110101
101001000010
1001101110111
11110100010
1111011000101110
1111100001001111
1111100010010100
1111101110110101
1111100000101110
1111100110101111
1111111111101110
10111001100
11000011101
1000000110
11010
1111111111100111
1111111111010010
1111111100000101
1111110001110100
1111110101111000
1111110100111000
1111111100110000
1111111000001011
1111111110100000
1111111010110000
1111110110100100
1010101010
100101
1111111100010000
101100000001
1010010100101
11101111001
1111010110110110
1111100001010111
1111100010101010
1111011001001011
1111100111001101
1111101100000001
10000000110
100001101001
10001101010
11001010
11101
1111111111101000
1111111111011101
1111111110011101
1111111111110100
1111111000010001
10101101
1001110011
1101001111
111010111
1010011010
1111110111110100
11100001
1111111110001110
1111110111110010
1001111001010
1001011000011
1111110000011010
1111011111001000
1111100110001111
1111101010101101
1111110110011010
1111110101001010
1111100011111000
1111111110110110
10011011000
110000001
1111111111101101
0
100011
1111111110110100
1111111110010111
1111111111100100
1111100111111101
1111111001011001
1111111011011010
1010011101
1111111110100111
1111111000110100
111000110
1100001101
1111111100100011
100111011010
101111101000
11011011011
1111110111100111
1111011100001100
101011111
100101101
1000101110
1111110100101100
1111110000101100
100100010
1101010100
1000011
1111111111101101
1111111111011010
10010
10000
1111111111101101
1111111111000101
1111110000011100
1111110000110010
1111111110001000
1111101110100001
101001110
1111111010110010
100011001
111010111
110011010
11000011101
1101111001
10110000110
1111101000100111
1111101010111001
1001100
1111101001000011
1111111000100110
101111110
1111111000011011
1101110110
1100100110
1111111111011011
1111111111101101
1111111111101101
1111111111111001
1111111110101100
10010
1111111111010010
1111111011111110
1111111000
10001000100
1111111000011111
1010110011
11111101
100011001
1100010101
111011000
110011111
11011111001
1000010100
1111111100100011
1111100011101100
110000101
1111101101110110
1111110110110111
1001001111
1111110110101001
10010000111
1111001100
11010001
1010111
1001011
1111111111000010
1111111111011010
1111111110101100
1111111110011111
1111111000011101
1000110100
111100010
1111101011110011
1111110110111001
11000
1010110001
1110011010
1100000101
10011011010
10101010001
101001111
1111101101011100
1111110000111000
1111101000100100
10111110
1111110001110110
1111110111000101
1111111011001100
1000010000
1001001010
1111011
1111111111111001
101011
100101
101011
1111111100100010
1111111101100110
1111110001111001
1111111111101101
110101001
110111000
1111101110010111
1111111100010101
10001100010
11011000110
10011000100
10111010101
1101110100
1111110100011000
1111110001011100
1111110100101001
1111110001101100
1110001011
1000001110
1111101010001000
1111111001010010
1010000000
1111111100100001
1111111001011101
10001
1111111111010010
11110
100011
1111111111100111
11101
1111110011001110
1111111001010110
1111101001
1010110011
11
10011001
111110000
10010000
1111111011111010
111000001
1101011000
1100101100
1111110001110010
1111110111000000
1111111110111101
1111110111110010
1000000000
1111101001011011
1111111111010110
1111111001
1111111101010110
1111111111001110
1111111111001101
1111111111100011
1111111111100000
1111111111110100
10100011
100010010
1111111000111100
1111111100100000
1111111011101110
1111110111011010
111100
1111110010011111
1111100000
11001111
111110100
1010101011
100011111
1010011101
1111110110100010
111
1111111101100011
1111110000100010
100000000
1111110101110110
101101101
1011101110
1111111100101000
1010
1111111111011110
1111111111100100
101000
1111111111111001
10010011
1000001000
1111111110111000
1111110111111001
110111
1111111100110100
110000
100111110
1111111001011111
1101001011
10100111100
110110010
1110011010
11001000000
1100
1111111000100111
1111110100011111
1101101001
10010110
1111111111011101
10001100001
1111111110100011
1111110110010010
1111111101101111
101011
1111111111110011
1111111111101001
1001
10
1100000001
111101000
1111110110001000
110000101
1011110000
111101001
1111110101110101
1100011
1000011111
10011101111
10001001
10100011011
10011110000
1111101010001100
1111110001010111
11001
1111111111101111
1111111011010110
1111111100011111
11001000
1111111010000010
1111110110010010
110000
1111111111111110
1001010
1111111111111001
1111111111000100
1001010
1001000010
100111011
111110101
1001011100
10100110
1111110001101010
1111110100010001
10001
1111111100001110
101101
101100010
11001001000
1001110101
1111111011011001
1111100001111101
1111101110001011
1111111001001101
1111111011010011
1111111011000011
101011100
1111111101111111
1111111011010111
1111111110111101
1111111111111000
1111111111011010
1100
1111111111101010
10000000
1000110101
1000111010
1111111111
100001100
1111101101011111
100001
10011010
1011011000
10010011
10110001
110101110
1001100010
110100011
1110001101
110000011
1001111
1011110011
11100000
1111111110110011
101001010
110000010
101101
1111111110110011
101001
1111111111111110
1111111111001011
1010
1001101
101011010
10101011
10001001
1111110110110100
1111111101101101
1111111001010111
1111101010011001
110001001
110011111
111101001
1101110110
1111100010
1001010001
10101111000
1011001010
10100111010
1101011000
1111111101010111
1111111110000111
101101101
110011001
110000000
1111111111110110
10101
0
0
11001
1110
100100
1111111111111001
1110001
1111111100100110
1111101011011011
1111111011000010
1111110110100011
1111110111
100100011
1111101110110011
1000011101
1111111111010010
100011
10001
1000100010
1111111111001011
1111111101111001
1111110010101010
1111110111001000
10111001
101101011
100000111
1111111111111100
10000
1111111111001111
1111111111111101
1111111111001100
100100
1111111110110010
1111111111010100
1111111111110011
1111111100111101
1111111010100010
1111111100001000
1111111100001000
110111011
10000010001
10000110000
1000011111
11001010
111111111
1110000
11110011
1111111100010101
10
11010
1111111011111101
1111111111010000
1111111111110001
11100
10
1111111111100111
100011
1111111111101100
1111111111010011
1111111111110111
111011
1111111111111100
1111111111111100
1000
1011110
1011101
110111
1111111110011110
10101
101001
1111111110011000
1111111110101011
1111111101111100
1111111110101101
1111111101010001
1111111010010100
1111111110101110
1111111111000010
1111111110100001
1111111110001110
110000
1111111111110001
1111111111111100
1111111111101111
101
