1100000
100010
11111
1111111111111011
1111111111111000
1111111111111101
10001
10100
1111111111010011
1001010
101
1111111111011111
1111111111101100
10101
1111111111110100
100110
101010
1111111111001101
1111111111010100
1111111111101101
1111111111011100
1111111111101001
111
1111111110111010
10111
1111111111110110
0
1111111111010101
100000
1100
1111111111111101
1111111111111100
1111111111111110
10001
1111111111101110
1111111111000110
1111111111000001
1111111110011011
1111111111010110
1111111110100110
1111111111101001
1111111101111111
1111111111010110
1110
1111111110001100
1111111111010001
1111111110101000
1111111110101001
1111111110010010
1111111110111000
10100
110101
1001110
10101
11010
100111
1111111111000111
10010
110111
1111111111100111
10010
110110
1111111111000011
1111111100100011
1111111100000001
1111111011011101
1111110111110100
1111110100011000
1111110010101110
1111111010010101
1111111010101100
1111111110101000
1111110110001100
1111110110111010
1111111001000001
1111111011110100
1111111011110100
1111111010111100
1111111101000110
1111111100101110
1111111100111101
1111111110011100
1111111111101101
1011
1111111111110101
1111111111111110
110101
1001
11011
1111111110001111
1111111011011111
1111110110010010
1111110010010101
1111101010101010
1111110101001010
1111111001000001
1111101110001011
1111011111001010
1111100011001001
1111101111001101
1111110010010011
1111111001100001
1000010
110110
1111111111000100
1111111110011110
1111111101001111
1111111010100000
1111111100010111
100100
1000
10001
1111111111111111
1111111111101001
11111
1111111111101110
1111111111010100
1111111011100011
1111111001010110
1111110011000011
1111101110100111
1111011101011101
1111100011011101
1111101010110110
1111100011100101
1111101001100000
1111110010110010
1111100111100010
1111101111001100
1111101011100100
1111101110110011
1111011100010100
1111101101100101
1000001011
110101010
1111111111100011
1111111010010001
1111111110010111
111011
1111111111100110
1111111111111100
1111111111110000
1111111110110011
1111111110010101
1111111101100000
1111111011110110
1111110110010111
1111110110101000
1111110000010111
1111101001001010
1111100100010001
1111100101010000
1111011110111010
1111101111011000
1111111110010111
1111101010001100
1111011111110010
1111111001010110
10111110
1111110011110100
10001111
101100111
1111111111011001
1111111111000100
1111110100110001
1111110010101111
1111111101111000
1111111110001110
10001
1111111111100111
11001110
111011
1111111010101111
1111110011010111
1110011
101101110
0
1111111110000100
10111110
111010001
1000
10111100
1111111011001000
1111110101010111
1111101001000001
1100110001
101111010
100010001
1111111011001000
1001100000
1111110111111001
1101011
1111111011001011
1111101100101111
11010110
1000110
1111111111110101
1111111111111000
110110001
1011010001
110100100
1111101010101100
110110001
1100000010
101011010
101011100
101001100
1111110101101000
1001010011
1001000100
1000010011
1111110100110110
1111111100011000
110000101
1111110110111000
1111111101111000
1010011010
1100001100
1111111010001000
10001001
1111110011110011
1111110010110001
1000100011
1000110
110000
1100010
110001101
1000110001
111101110
1111101110001011
1111110001110100
1111101110001011
1111110101101010
1001010
1111100011011011
1111111111001010
1000000011
1111110111111111
1000011110
1001001001
1111110110110110
10000001010
111001110
1111110111011100
1111110001111010
1111111111000110
11010010
1001111011
110010010
100111010
101010010
111100
110010
1010000
1010000
1000011100
1010101000
1111110111000001
101101111
1111111110010111
1111110000110011
1111111110100011
11010001
1100111011
10010010010
11110111
1111111110101100
11010100
1011000111
11011011010
10110011010
1111111100111010
11001
1000101101
1111010100
1111110100100001
110010011
10010100011
1010100100
110111010
1010011
1001101
1011111
1111111100
1110111101
100111
10001001101
1111111000110000
1111101011100100
10010
1011110101
100010111111
1110001110
1001011011
1111110011110110
1111111111111110
1100011000
111001
1001110111
1001011100
1100110011
1000101011
1111111001100111
111001001
1111010100
11000001110
1000110001
10100100
101111
1000101
101011110
10011010101
11010110011
1111101100
1010110010
11011010
10010111
1001001100
1010100
10010110111
1111110011110110
1111111001010011
11010000
10101110100
101100011
111010100
1000110001
10000101010
1111111011011010
10101000010
111001
1110010101
110100111
101010010
1011011
1010100
1111111111000100
111000
10111111
1101000001
1111100010
11010000
1111110010011001
110000110
110111001
10100101
1111111001011100
1111100011011100
1111101101011001
1111110110111000
101100101
100011100011
1111111111010010
11101010
10101100111
101111100
1111110111010101
1111110111001011
1111111101110010
1111110100011011
1111110100000011
1011011
111111000
10100000
110001
100100
10111000
1111010001
10101001001
10111011
1111111000001111
1111101010001111
1111101110110100
1111110011010001
1111110111111110
1111101101011000
111001111
1111111011110100
1111111100110010
1111110001101010
1111110111100100
10101100110
1100111
1111101111001110
1110010010
1111101111110011
1111101110111000
1111110100001110
100101101
1010000110
11001111
1111111110111111
1111111111111010
1111111111101100
11100
1100110101
11000001101
110110011
0
1111101101101011
1111110010101111
1111101111010100
1111100011010101
1111011100110010
1111111000101010
1111110110110111
1111110000110101
1111110100011011
1111111101100000
111100110
10000011
1101110011
10011111001
1111110000010110
1111110110101001
1111110101101000
1111111011100001
1010100
10001
1111111111111100
0
1110
1111111111000111
101100011
1111011100
11111111000
101011000110
1111011010
1111110100
1111011101
1111110110000100
1111101010101100
1111110000101010
1111110111010011
1111100011001110
1111111001101011
1111110011111111
11000111001
1111010011
1111100
1000
1111110010111010
1111110011100100
1111111100010111
1111111001011011
1111111010110000
101000
110
1111111111010011
1111111111111110
10110
11000000
1101101101
11100110110
10110000011
100101100011
1000001111101
110110001111
10001111011
110000000
1111011100
1010110100
1111110101001100
1111111111010000
101101001
11000010
1011111001
11100011
1111110
11010101
1111111111101000
1111111100010000
1111110100111011
1111110101111011
1111111100111011
11011
1000100
111100
101000
11000011
11111011
10001111100
10100001110
1101100010
11001010110
11111001100
10010010100
11011011010
110100101001
100000100101
1001100110
11010010100
100111111
1100000110
10000000010
1111111110111110
110110110
1111111111110001
101101010
1111111101100011
1111101110111001
1111111100101110
10100010
1111111111100111
1111111111110110
110
110000
1111111101010110
1111111101101100
1100010100
1101101001
1111110110011010
1111110011110011
1111111011111001
1101000100
100101011111
11011010001
10110110010
11000110100
110001001
1111110011101001
1100100010
10011110010
111011010
111010100
1111111100111111
1111110101111001
1111100000100000
1111100111010011
1111110111001110
1111111111000000
1111111110011010
1110
11010
100011
1111111011011011
1111110110111001
110010
1111101111101100
1011001
1111101111000110
1111011001000011
1111100010000110
1111100010101010
1111110111000000
110101100
1111110011111010
1111111010110100
1110111
1111101010110000
1111110011111111
1111111011010100
10111011
11001100
1111110011001011
1111100101001111
1111110010100100
1111111101011010
1111111111001001
100110
1111111111101001
1111111111011001
1111111111101011
1111110100111101
1111101110010110
1111110000001100
1111100101011000
1111101000010111
1111010101000011
1111101001111111
1111100001101000
1111100111101001
1111010101110000
1111011011010101
1111101010101100
1111110000100011
1111101010100110
1111101001001011
1111100011000100
1011000111
1101101
101010011
1111110100100101
1111110010111111
1111111011001110
1111111111011101
1111111111100100
1111111111110010
1111111111111010
1110
1111
1111110010100100
1111100110000111
1111011111100101
1111010011010111
1111001110011111
1111010000010000
1111101010001110
1111101110010011
1111100000000000
1111011101101011
1111100001100010
1111110001000011
1111101100100001
1111110011001011
1111101111010010
1111111001011111
1001011001
1000011111
10010100
1111111000011011
1111111000000000
11001011
0
1111111110111001
1111111111111011
110
11100
1111111110010101
1111111011011010
1111110000111001
1111011010100000
1111011001101011
1111101100001010
1111111110110011
1111111101100000
1111111001100001
1111110100010000
1111110100000011
1111110101101110
1111111011100101
1111101111001011
1111111011000100
111000110
1111111100010000
1111110100110111
101101
1111111110011111
1111111101111100
1111111011111010
1000001
10001101
11101
1111111111101110
1111111111111001
101111
1111111111010101
1011
1111111111110101
1111110101001110
1111110100101101
11011010
1001010011
1010110001
1111101111000100
1111101101100011
1111101000010010
1111111100111011
1111101111110010
1111111000000111
1111100100011100
1111110100111100
1111111000011011
1111110010111000
101001
1111111001000101
1111111010010111
1111111001111101
1111111111001110
1111111111100101
1
1101
10001
111011
101100
11100100
1001010000
1111100110
1110110110
11010011001
10011000010
1111110011010110
1111100110101110
1111111111101110
1111110001011110
1111111111110101
1111110011111010
1111111110001011
1111100011001000
1111110101001010
1111101000000100
1111110011011011
1111101000
1111111111001011
1111111100101011
1111111101101011
1111111101100011
1111111111110011
11011
11001
111
10000
11000
1111111111111010
111110111
10001101100
101101011
1101111001
10110011111
10100110101
1000100000
10011101001
10111001111
1010100001
1111111000110111
1111111111010110
101111111
1111101111011111
1111110110011111
1000000100
11110000
11110110
10111000
1111111111011101
10010
110110
1111111111100101
1111111111110100
1011110
1010
1111111111010011
1111111111101010
1111111111100001
110010111
111111110
1010010100
10010100010
10101101011
11000111101
10010011100
10111110010
10111111000
11000000010
1000001010
10001110001
1100010011
110100100
111000100
110100000
110111000
1101011
1101
0
1111111111110110
1111111111110010
1100
1111111111110001
1111111110111000
1111
11101
1111111111111000
0
1100
10000
11010
110001
10011010
1100
111111
10000001
101001011
1111111111010001
1111111101100000
1100
111001
111001
1111111111110001
111011
101100
1101
1111111111011001
1111111111110100
11010
101
