1110
100011
100000
1111111111100011
1111111111110100
1010000
1111111111110111
110001
1001
1111111111111001
10000
100
1111111111110000
101100
1111111111111011
11101
1111111111111101
1001
1000
11000
1111111111110100
1111111111100101
1010
1101
1111111111101101
1111111111111100
110011
1111111111110100
1111111111110111
1111111111110010
11100
11
10
100
1111111111001110
1111111111100000
1111111111001101
11010
1111111111100110
1111111111111001
1111111111101011
1111111111100101
1111111111100011
1111111111100110
11101010
1000101
1111111110001000
1111111110011101
1111111110001100
1111111101101001
1111111111000011
10001
1111111111111010
100011
1101
11001
1111111111011001
110001
10101
11101
11010
1111111111101011
1111111111101011
111010
101
111000
1111111111111000
1101010
1111111110110100
1111111001010111
1111111010111010
1111110101011100
1111110110001011
1111111101101001
1111111010001010
1111110010110100
1111110111011010
1111110110011100
1111111011111101
1111111110111100
100000
111100
1111111111110110
1111111111101001
100010
1111111111011101
1111111111010010
1011
1111111111110101
100100
1111111111101000
11
11011100
10010010
1100001010
10001100010
1110111010
1001111000
1100010101
11110100
1011010111
1111111100010110
1111101000000101
1111100011001000
1111101000110010
1111101101111010
1111111010011001
1111111001011101
1111111011101000
1111111111101111
1111111111101100
101000
1111111111100111
1
1111111111000000
1111111111010001
10100
11111110
110000011
1100000110
1111110110
1011110000
10011001011
10000101001
11100011001
10110111111
11111100
1111110101110101
1111100111000001
1111110101011101
1000010001
1111110001110011
1111101100010001
1111110101101101
1111111100011100
1111110001100110
1111111111101111
10001100
1100011
1001111
101000
101
1111111111110110
100111
10110100
10101111
1010011010
1101100000
11011100000
11011001100
101111101011
11010110110
110110011
110100011
10010000
1111111101100100
1111000
1111110110010001
1111000010
1111110000010101
1111101110101110
1111110100101001
1111101011101101
1111101010111111
1111101111111011
1111111011011110
1111111111110100
1111111111101111
101101
1111111111110000
1111
101110
10110000
111001111
1111010011
11100001000
100100101000
100001100110
10110010110
10000111111
1111111000101000
1001100111
1111111101100001
1111110100000010
1111110110101101
1111111100001010
1001101101
1111101100101001
1111101100100011
1111111111110001
1111011110101110
1111101111001011
1111111110110110
100000010
10000101
1111111111010101
1111111111110100
1111111111101111
11001
11111101
1000101011
1111111101
10111100000
11110101111
11110100001
1111111110000100
1111110011100101
1111110111101010
1111101010100101
1111110000101000
1111101010011010
1011100101
11010111
11001101
1111010111
1101001
1111111100011101
11010001
1111011111101100
1111101001100001
1111111111110100
1010111100
111110100
100101
1101
10010
1111111111011111
100010111
1100000100
10011001100
1111101101
10110000001
10011001001
1010111000
10001001010
1111100100000101
1111101100101111
1001000
1011001111
1111001101
101011001001
10010111101
11110000011
1111111111010101
11110000111
110011010
1111111001100001
1111110111110001
1111111111100000
1000000010
110111101
100010
1111111111010001
110
11100
1000011010
10001011001
10100001110
1110011110
10100010011
10110000101
1101110110
1000110100
1111101101011001
100001011
1111111000001110
1011100001
1101100100
1110000010
101111111001
10001001001
10101000110
100110011001
1010010011
1101101001
10110001100
1111101100
1001110100
110000100
10011000
1111111111101110
1111111111111011
1101100
111010001
1100010001
10001101000
1101100001
11001000001
10000000101
10111000000
1111111110100011
1111111000101111
1111011111011100
1111100010011001
1111110110001111
101100001
10110000
11000111000
1110011101
11001101
100010011011
11011101110
101000101100
101000110110
11001111111
1101000001
101101000
1000010
1111111111001001
1111111111110011
11001
100110101
1011101011
111110000
1111111101011000
1101100110
101011101101
11011010111
1111110111110111
10000101
1111010101110111
1111101011000101
1100010010
1111110011000110
1111100110000010
1101110010
1000001111
10011101110
1011000010
11011001111
101111100110
101101010101
11001110011
1011100000
11100110
1111111111111110
100101
111
1000000
11111
101110000
111101010
1111111001001011
10011000
11100101111
1000001111
11001011
1111110001100100
1111100010100011
1111011111011100
1111101000100010
1111101110010101
1111110000001111
1111110110001011
1101001010
10101000111
1011000011
1001111100
10110001001
10111001001
1011000001
1101001001
111011000
1111111111100010
1111111111110110
101011
1001011
100010
111100111
1000110111
1111111100000011
101010001
1110110010
1111111101001001
10101011100
10001011
1111101100100000
1111100111011111
1111111110000101
1111100000010000
1111100110101111
1111000110
100001001001
11010100110
1111111101001011
1001110100
11010111000
11111000010
10100101010
1001101011
1001111
1111111111101100
111111
101011
10101
10010
100011111
101000011
100111010
111111011
1000000100
110101111
1111111011001111
1001001100
1111111100111101
1111101110101010
11000000
1111101100011100
1111100010111011
11111000101
100111101010
100010000110
1111110101001100
1000001100
10100011101
10101111000
10000010010
101100000
10001101
1111111111100011
10
1111111111111110
1111111111011111
100000111
111110000
1100100011
1110011001
10111000
1111111001001100
1010100001
111011111
1001010010
1111111111110001
1111110101100010
1111101001011000
1111101011101110
1111110011111101
100101111111
11110110010
1111111110101101
1111110001111101
1111110001100101
1100001100
111101011
1111001001
1010100000
110011011
101100
11100
1111111111110011
1011110
1000010001
100000100
10101110
1000110111
1111110000111000
1111101110111101
1111111000011011
11111011001
101100111
1010101000
1111111110011011
1111011010111001
1111101101111011
111001101
100000001000
1000001011
1111111111011010
10000001
1111111111101110
1011010101
11110001
111010110
101110100
10000000
11
1011
10001
1010011
101011010
100100010
1111111100110001
111001011
1111110111001011
1111110110011101
1111111000001010
1111110010111100
11101100
1111111100000001
1111111011101000
1111101101111000
1111111001110110
11101010001
10101010000
1111111010010010
1111111110111111
111100000
1010000010
1111111111001010
1000001
11010
100100100
10100011
1010101
100110
1111111111000110
1001001
10000001
1111111110001001
1100001010
1111111000
1111111110010101
1100111100
1111110110010000
1111110011111010
1111111101011110
111110100
101100011
1111100110000100
10011001110
1111010000
10010110
1111110000110111
1111111110110010
111110100
1111111111001000
1110101100
1100110001
10100111
1101110
11111
1111111110101001
1111111111111101
11010
10000
100010101
10010111
1000010011
1000011101
1111110110111111
1111110111011010
1111101101101010
1111100111001011
1111011010001010
1111111100010001
1011011101
111000001
1011010010
1111111010111100
1101110011
1010011001
1000000
10111
1111111110111010
1110110001
1111001
1111111010101001
1111111010001101
1111111111100111
1111111110011111
10011
1111111111101111
11011
110101110
110110101
11111
1111111110110000
1111111111100000
1111110101010101
1111110101101100
1111110110110110
1111101111001001
1111101000000001
10011110100
1010001001
1110101010
1100110110
1001111001
10000011001
1111110010001110
1111110100011000
1111110101101111
1111111110011010
1111111011100010
1111110011001001
1111111011011100
1111111110111111
1111111111111101
100001
1000100
111010
10011
1101001
1111111001000000
1011001011
1110010010
1111111000001000
1111110011001100
1111101011000010
1111100111001100
1111100110100011
1111110111010001
1010001011
1000001111
11011011
1111110110100101
1111111010110000
1111110110101001
1111101111000111
1111110010100010
1111111100111100
1111111111001011
1111110100000111
1111111010011100
101001
100000
1111111111111011
1111111111111101
110101
1111111111100110
10000000
1111110111101010
1011110110
1111111110110101
1111100110010101
11110100
11111001
1111110110110111
1111111011101100
1111100111111100
1111101111101010
10011001
111111110
1111111011010011
1111110100100101
1111111100011110
1111110100111111
10110011
1001111101
11100011
1111111101111111
1111111110001001
1111111111110010
11100
100100
0
1111111111101011
10111000
1001001011
100100
110000010
10001000101
1110101000
1010110101
111101101
100001011011
1111111101100011
11101001
110
100100011
101010101
1111111010111111
1111111001110100
1111110110011000
1111111111000111
1010001010
1010110110
10010100
100010110
10010
110111
1111111111100011
1111111111100001
1111111111110110
1010
10011110
1000010111
101010111
11111110
1111111111100011
1111111000101010
1111111010011000
1111111100100110
10000100000
1111111111110010
1111111110001111
10011110111
110010011
10100100000
10011000101
101011100
100010101
11110001
100100000
111011
1111111111110001
101100
1101011
110010
10011
1111111111100111
11010
1001
1111111111111111
11001010
1000111000
111001101
1111111001011010
1111110100110001
1111111101011000
110101
1111101100110000
1111101011111010
1111101111101100
1111110111110011
1011011011
11001010011
110010001
1010010
10101101
1111111100101110
1111111000110110
1111111011010001
1111111111010110
11001
1110
101000
1111111111110111
110001
1111111111110001
11010
1111111111111101
1010011
101110
1011010
10010
1111111111110110
1111111111110010
11110110
101111000
110000001
1011110001
1010101
1111111110010001
11111110
101000110
111001
1111111111111000
1111111101000000
1111111101011011
1111111110101101
1111111111110101
1111111111110000
1111111111010000
1111111111011000
100000
110000
1111111111101001
111110
1111111111010110
1111111110101111
1
10
101
1111111111111000
110111
11010111
101000
10100100
1101001
1000
1111111111011011
1111111111000110
1111111111101011
1111111110100000
101010
1111111111111100
1111111111110000
1111111111001010
11001
10
111111
1111111111111111
1100
