110100
100000
110
0
11011
1101
110000
1111111111101010
1111111111100111
1111111111101010
10001
10001
11101
1001101
1111111111101111
11101
1111111111110111
1011
1111111111111011
1111111111011111
10111
1111111111110100
1111111111100011
1010
10000
100111
1111111111010110
101001
1111111111011111
10000
100111
11111
10110
110
1111111111110110
10011
101
1111111111100011
11001
111011
1100
111011
100101
1010101
1101
111101
1101001
1111001
1010011
11010010
1111111111110011
111
11011
100101
11000
10
10010
1111111111111011
1111111111110001
101110
1111111111101100
1111111111010111
1001110
1010
110000
1111111111001100
10110001
11011000
111100010
111001011
101101001
1110010011
1000010000
1110000001
1001001101
11001111
1111111110101001
100111100
100000111
1001011
1010
1111111111000011
1010
1111111111011011
101110
1111111111010000
1111111111101100
111100
100001
0
110011
1101
1111111011000011
1111111110110100
100011011
1111110010111100
1111101111001101
1111110100100010
1111110111010010
1000
1111111010000000
1111111000100100
1001
1011101010
1100110110
10000000111
1011001110
1010001101
101001011
100
101100
1001
10100
1111111111101000
11010
100001
11
1111111111010111
1111111110011111
1111001
1111111011100011
1111111000111001
101100100
1111111010100110
1111110101001101
1111111010011001
1111111001000111
1111111010101011
111101010
1101111110
1111111011110001
100111
1111110010001000
1111111001000001
1111111101100100
1100001011
1011101101
101111
0
101111
1111111111110001
1111111111011101
11100
1010
1111111111100000
1111111101000010
1000000
1111111100000110
100010010
10111100
1111110110000011
1110100
110101011
1111110100001111
1111111111000010
1110110001
1111110000110000
11010110110
10001000100
10000101001
11011010
111011100
10000010
1101010001
1001011001
11011101
11000010
1100010
101101
1111111111111010
1111111111011010
100000
1111111110101110
1111111100001101
1111111010110110
1111110111001111
1111111001100100
1111111001010010
1111101000011111
1100110101
1001000011
1110110
1111111101010100
1111110100101000
1111101000011000
1111111110010111
1000000011
10010001110
11000110
10100100111
1101100
1110111111
1010011111
1100000111
1101001
1010000
111011
1111111111000101
1111111111001101
1111111111101110
1111111100101011
1111111010000011
1111110011111111
1111110000011111
1111110001010111
1111101001010100
1111110001000010
1111101111011110
1111111001010000
1111110011111011
1111111100011101
1111111011101100
101001010
101110100
10000011110
1111100011001110
1111111011101111
11110000
1111110001101111
11000011001
10010001010
1110011000
1001010
11000
101101
1111111111111011
1111111110110011
100
1111110110100100
1111110100110000
1110
1111101011110011
1111110010001001
1111110100001101
1111100011011010
1111110010011111
1111110011000011
1111101110111111
1111010100011110
10000001
10100010111
1111111000101011
110000101
110110000
1100011
1000001001
1111110000011011
10101010001
101010111111
1110100110
10010110
11
1111111111111110
101010
1111111111101101
1111111110000110
1111111000011101
1111110101011111
10000101
1111111011010100
1111110111001010
1111101111001111
1111100011111111
1111101010100000
1111010011000001
1110011
1101001011
1111110101111001
1111111001100110
1111111000110100
1111111010100010
1111111011010010
1011001010
1111111101000000
1111101001111001
1011100011
100001101100
101110111
1111111111111010
1111111111101011
1111111111111100
1110
1101011
1101011
10111111
1001101100
100101110
1111110100100010
1111011110111011
1111111110100111
1111101110001111
11001100001
101001000100
100101010101
101000001111
11011111100
1111000001
10000000
1111111000010101
1111111000011001
1000111
10011
101100010
11011001110
10110110101
1111111110101011
1111111110110001
1111111111110110
1001
110100
100011010
1011010100
10101111011
1111111000
1101111001
10111101000
11010100110
110111011010
111111101100
1001100111111
1101010111110
1000100001011
11010001110
1111100101
1111111011110000
1111111100110011
111010011
11101100
10111000
110010010
1110010010
1100101010
1101111000
1111111011101101
1101001
1111111111111110
1111111111010110
1011111
10111001
1110110011
100000000100
110010111101
1001001101001
1010010111110
1101101101000
10000010001000
1100100001011
1001110001000
10010011100
11101
101000101
10011011
1111101011001010
1011100001
1000111000
10111000110
1
1000101110
10000111111
1110100110
110010000
1111110100101110
1111111111101010
1111111111100010
100101
10100001
10011110
1110100110
11101010010
1000100001000
1100010010111
1100100001101
1000110101001
11010101001
10100001
1111111000101011
1111111111100100
11101011
101001011
10000101100
1011010
1000001010
101010100
10000100001
1101110001
10101000
111000011
110110111
1111111101100100
1111110010100001
1111111110110011
1111111110001100
101101
101000
10001001
10011010110
10000110000
101110111010
110001100011
10001010101
11100010000
1111100111110001
1111101111110110
1111110010000001
1111100101010100
1111110001111010
1111110001001111
10000010
1110111001
10101110
11000110
1111111010000010
11001000
1111101011110100
1111110110000101
100010100
1111111101101010
1111110111010111
1111111101000001
100111
11110
101011
1101010
1011010011
111001100
1101001111
1111111100111111
1111101100111001
1111101001100110
1111110101110110
1111110011000001
1111110101011010
100000111
1111110101001001
1111110011101110
1111101011110101
110110011
1111110011
1011101101
1100010100
1000011100
1111100000000000
1111110100111010
1111111010001100
1111111010101110
1111110011110100
1111111010000001
1110
1111111111011100
1
1111111101001110
1111110111100001
1111111110000000
10101101
1111110110000010
1111100101100110
1111111001110100
1111111101011100
1111111000010101
1001110010
1111101111111000
1111101110111011
1111110011000010
100010110
1111111001100110
1111110110011000
1111101010100001
1111101011001011
100001100
1111110000111000
1111111001100001
1111110000001110
1111100111111100
1111101010111100
1111110100010100
1111111111110101
1000001
1111111111110111
1111111010100111
1111111000100101
1111100111001000
1111111100101101
1000010
1111111111100111
1111110011001011
1111110001110110
1111010110
100000010
1111110001101111
1111101100101011
1111101111101101
1111110111010110
1111111110101101
1111111100000010
1111110101100001
1111111010111111
1011110110
1010010111
1111110111101001
1111111001011111
1111110101011000
1111110001011110
1111111100010100
1010
10010
10100
1111111100111011
1111110000110000
1111110101110110
1111111000100110
100
100110
1010011101
1111111010100000
11110110
1111110110100001
1111111001001001
1111111011110011
1011100
1111111101001110
1111111000100110
1111110001111100
1111111010011001
1111110100111000
1101100
10110010101
1101011
11010001
1111110000110001
1111110001101101
1111111100000000
1111111110011010
1101
1111111111111100
11000011
1111111001001111
1111101010101100
1111111010000100
1111101110010001
1111101000111010
1110110011
111010001
1111110101110110
1111111010111000
110001110
1111110011001001
1111111101000010
1111101101111110
1111111000010100
1010010
10010001010
10101010101
10010001
101
1100111
101001
1111110110101011
1111110110000001
1111111110100011
1111111111100001
1111111111001000
111
1010001
1111101110010000
1111011110011101
1111111100010100
101001
1111101001101011
10000110101
1111111000111100
1111111011000010
1111111010011011
1001110111
1111111101001001
1111110010011100
1111111100101010
1111110100010101
1001111000
1111111110000000
1110011
1111111011110001
11001010
111011010
1111110110001100
1111111100101011
1111111001101111
1111111111010010
1111111111111000
1111111111001000
100000
1111111011100101
1111101001110001
1111110010101101
1111111001011010
1100100010
1111110011000100
1110
1111111011111010
1111111111011111
1010000010
1111110000011101
10001000
101010101
100101100
1010
1100111010
1111110001001110
1111111111100010
111111001
1111111001010100
1111111010101000
1111111001100100
1001110
11111
1111111101110110
1111111111011011
1111111111010010
10110
1111111101111101
10000010
1111110001001001
1111100101011100
1010010011
1111111100010010
101110111
100001000
1111110001101111
1111110111101010
1111001011
100100100
1111110111110101
1010101101
1111101010110001
1111110011011100
1111101110100010
1111101111110111
111101000
1111111100000010
10100001
1010001
1111111110010110
11100010
10010
1111111111101111
1111111111110101
10110
101000
100000100
10100000
1111110110101011
1111111101101001
1111110000101110
1001101111
1111110101101011
10000000011
1111110010001111
110100110
1111101100011110
110110101
1111111100011011
100001101
1011101001
1111110001000101
1111111100110001
1000111100
1111111011010000
11010011
1111111100010010
1111111011101011
101001
1101
1111111111110111
1111111111101101
10111
1111111111011001
1111111011011111
1111110101001100
1111110111010011
1111111011110011
1111111000101010
1111110001110111
1111111001011011
10010111010
1111101101
1111111110101000
101001000
1000011111
110010101
10010001100
1111111110001010
110010111
100010011
110
1111111011110111
11000010
11100001
1111111011100100
1111111110011000
1111111110011101
1111111111100010
1111111111111001
1111111111011101
1111111111110100
1111111111001001
1111111010011101
1111111110000111
1111111100000110
1111110101000000
1111100111001010
1111101100011111
1111110010011110
1111111001001101
1111110111100000
110001000
111010000
1111111110001110
11010000
1111100100
10011100010
1100111000
11000011
1101001101
110011101
1111010
1010111
1111111110101101
1111111110111010
1111111111111011
1111111111100100
1111111111010101
101000
111111
111100
10010110001
10001110101
1010
1111111110110100
101101100
111000
1111111100110011
1111111110011100
101100110
111011001
1011100
10001010
111111111
101101000
100001111
11101111
1001001011
101000110
111011
1111111110010010
11011
10110
1111111111010010
1010
11111
1111111111100111
111111
1111111111010110
1111111111101100
11011
10001
1111111111100000
100
0
1111111111100011
110
1111111110111110
1111111111110110
1111111110100110
100100
10110
1111111111110000
100101
1001010
1001100
101000111
1111111111111011
1111111111101011
100010
1111111111111010
10000
