10010
10010
110010
1111111111100010
1111111111111011
1111111111111010
1111111111100111
1111111111110110
10011
10011
1111111111111101
11110
1111111111011000
0
1111111111100110
11100
11001
110000
101000
10
101000
1111111111100011
1111111111100011
100010
1111111111101011
1111111111100101
11101
1111111111001111
1111111111111000
1111111111010101
11011
1100
1111111111001101
10011
11010
1111111111101011
1111111111010100
1111111111111101
11111
1111111111100110
1111111111110101
1111111111101010
1111111111110111
1000100
100000011
10100110
10000
110
1111111111101100
1111111111111000
1111111111110100
1111111110110010
1111111111110101
1000
101000
1111111110111001
1111111111010101
1111111111100101
10110
1111111111110101
1111111111100010
1111111111111101
1111111111100001
1
1111111111111100
1111111111001111
1111111110101011
1111111111101111
10010100
1010001
1111111010011111
1111111000100100
1010000
10100010
11011100
10101101
1111111111111000
1111111110101001
1111111110011000
1111111111000000
1111111110111010
1111111110110101
111001
1111111111101100
11010
100001
1111111111110111
1111111111100011
1111111111110101
101010
1111111111110010
1111111111100101
10111011
11010100
10000010
1111111010111000
110110010
1000101001
1000010100
111111010
10111001
111000111
10110000111
10100010011
10001010
1111111010100011
1111111101100010
10110
10000000
1101
1111111111111010
1011
11011
10100
111111
1111111111010001
1111111111100011
1111111110011000
10010011
111001100
1011010
1111111100011111
1111111000111010
1111111010011110
1111111101100101
1010100111
1111111011110100
1010101011
1101011110
1111110110010111
100110111
10111010011
1111111110
1000110001
110001001
101111000
111100110
100000
1111111111010001
1101
11000
10010
10011
11011
1111111111101010
1111111111111100
1001011011
11101001
1111111011010000
1111111011111000
10001011
1010011
1111111111110001
1111111111010101
1111101011111100
1111111000010110
1100011000
100011100
1111110001100000
1111111001011111
10111001110
11001100011
10011110111
1110110010
10100011
1111110111101110
111001
1111111111110111
1111111111101011
111
1111111111010100
1111111110110011
1111111111110011
11101000
1011100001
11111010
1000000001
1111110100011001
1111100110001101
1111110010111101
1111101010011101
1111111101001011
1111111110101000
1111101011011001
1111111110111111
100001110
100100010
1111111110101010
1111111110100000
1101010011
1101001011
1001010110
10000001011
1111111110101111
10011001
110001
1011
1111111111110011
1000
1111111111001110
10001111
10100001
101000010
1111111010011111
1111111011100000
1111101100001001
1111110000010111
1111110010111111
1111110110011010
1111101101001000
1100111000
1111111010101011
1111101101011100
1111101101110010
1111101010110100
1111110001011001
1111111011111010
1111110001101100
1111110100101000
1111111010110011
1110111001
111001100
11010000
101101
111
1111111111111011
1111111110110100
1111111111111011
1111111111111101
1111110110101110
1111111010011101
1111110001111010
1111101110111010
1111011111010001
1111101111111011
1111101001001011
1111100100111001
1111001101101101
1111100000011000
1111100101011000
1111111101011111
1111111111100001
1111110010001011
1111011111001110
101110
1111110011101011
1111110100101011
1111110100010101
1011100110
100110000
1111111101011111
100110
1111111111101011
100001
1111111111001011
1011001
110011
1111111111101001
1111111000101100
1111010001
101000110
1111110011011111
1111100100010101
1111110010000010
1111111101111101
1111111110111110
1001001101
1111111101001010
1111110000111111
1111110010101111
1111111101101100
1111100100011100
1111011011110010
1111111100000110
1111110111011000
1111110101011100
10100110101
11011100
10000000
1101100
1111111111111000
111101
10011100
1000000111
1101110
10110110
1111111110011001
111000111
1011000000
1001100
111011000
1110110101
11000011111
100001000100
100001110100
1000011011
111101011
1111100100101111
1111100111101010
1111011000001010
110000011
1111111000011111
1111101010001110
1000011001
11000111100
11000101011
1000000110
100010
1111111111111110
11010
111001010
1000010011
1010011000
1000010
1111101001001111
1111110110000110
11010111
1111110101000101
1001011
1100101100
10010001000
101101101010
100001100110
100001110000
1111111011101111
1111100110010100
1111110010000001
1111111000110001
1111100100001101
1111110010100001
1111110001000000
1111110110100100
1111110101001101
11111011
101000100
1111111111010011
1111111111101000
1111111111110010
101011100
1111111101100000
1111111101001000
10111110
1111111111010000
1101001001
1011011111
1111101100
1101100100
11001010111
100111000100
100110010101
1111111010110110
1111111010100010
1111110010001001
1001011
1111111010101110
1111101111100111
1111110011011001
1111100110111110
1111111010001101
1111101101110101
1111101111011100
1111011
1000001
1111111111000101
1110
1111111111100111
10101111
1111111100100000
1111111011000010
10010010001
11010101111
1100010000
1111111100110000
1111111110000111
11100011100
11111000111
100100001011
100111000
1111111110011010
1111010100101001
1111101001100111
1111100010011001
1111101111000111
1111110011100100
1111110101010110
1111111010011100
1111111010000100
10101000
110011
10010001
1111111101110110
1111111110000011
101111
1101
1010011
1111111101101000
1111101101010100
10011100010
1101111010
1111110111101010
10000100011
100100011010
100010000111
100101010111
1100100000
1111101001111111
1111101000001111
1111100110101001
1111010011010100
1111100101100101
1111111011011101
1111101001100100
1011111001
100001010010
1100111011
10010011100
101111111
1111110111110000
1111111111010010
1111111111011001
11010
1111111111011010
1111111110100100
1111110101011000
1111110000111010
11100010010
1111000100
1001101000
1111111110111111
1111110011
1011101110
1111111110001000
1111111011110111
1111101110000111
1111101010100000
1111101000000011
1111101111110010
1111111000010110
100110011
1111111000010101
1000110010
10101010000
101110
10011110010
110101100
1111110111111100
1111111110110101
1111111111110110
1111111111110100
1111111111101010
1111111110111011
1111111000000010
1111111010010101
10101100
1111110010011111
1111111101011010
101010
110111000
1001111000
1001000100
1111110011010010
1111101101110000
1111110010111010
1111110001000011
1111101010100011
1111101100011000
101101100
1100110010
111110100
1111111100111011
110001011
101000010
1100100000
1111111010110101
1111111110110000
100001
1111111111010100
1111111111111101
1111111101011100
1111111010010011
1111111001110000
10111110
1111111111110111
1111111000100101
1111110001111000
1001010001
110100101
1111111100000100
1111101010100101
1111100010000101
1111111010010001
11111011
1111110100011100
1111111011010101
1011100010
1100000001
1111111110101011
1111110000001001
1100111101
10010110000
101110111
1111111110011011
10101
1111111111110110
10110
100001
1111111111001111
1111111010110010
1111110111100001
1111101111010010
100101
1111000101
1111110111110001
1111111110111010
11000100
1111110101101001
11000100
1111110100001111
1111110100110110
110100110
100000000
111101001
100100001
100111001
1111101011011001
111001010
10100111010
1101001100
1111111011110000
1111111100111010
1111111110011101
1111111110100100
111100
10010
11000
1111111110101110
1111111010011111
1111111100110101
1111110110100101
1111110110001100
1111111110001110
1111111001110100
10000111111
11011001001
11010110100
10001000011
10010001011
11010001110
1111111100011010
10000100010
10000111000
1101001011
1000100010
110011110
10100001010
10110010
1111111110010010
1111111101000111
1111111111010100
101110
1111111111011010
110110
1111111110111011
1111111110000100
11111
1111111101111111
1111110101010011
1111111001011100
100100010
100011101110
11101010001
101001111100
100100100111
101101101101
100100100101
10110000110
1111111110101011
1001100101
10111110
1101101010
1111111011001000
1111110101001110
1000011000
1000100000
1111111101100001
1111111011011010
1111111111100010
1111111111001001
1111111111011101
11011
1111111011111000
1111111110100001
1111111000011111
11110000
1111111000110100
1111111111110011
10110111
1111101001010000
1011100111
100011000
101001001
10100000001
11001001100
11001000011
10111101
1101110111
1100000001
1111111100010011
1111111100111100
1111111000101011
1111111110011010
1010110100
10011
1111111111000001
1111111111100001
101011
1111111111101111
1111111111100010
10110
1111111111001100
1111110011101111
1111111100110110
10011000
1111111011100101
1111111000001110
1100000
1111111010000101
1111111001001000
101010011
1110010110
1111111010111001
11001011000
10001001110
1001010111
1110001100
1111110010100011
1111101000100010
1111111000110001
11101100
110111110
1111110111111111
1111111100010111
100011
10100
1111111111011011
0
1111111111011110
10111
1111111100010101
101000101
1001100111
1111111001011010
11001110
10011100000
10111101000
10101110010
10111000000
1111101101011000
1111110011110110
100000110
1111111110000101
1111111100001111
1111101111000000
1111100101101110
1111100110111000
1111110001101000
1111110010011101
1111111001001110
1001000
1111111101101101
1111111111110001
1010
101101
101111
1111111111110100
1111111111100010
1111111111100111
101101110
10111110
1111111110000110
1101
101100001
1111111110100010
1111110000111010
1011000000
1011101101
1111111110110010
1111111110111101
1111100000010001
1111111011010101
11110110
1111111000000011
1111111000000011
1111110101111110
1111110111111010
1111111100111110
11110111
1111111111010000
1100
1111111111110111
1011
1100
1111111111111110
0
1111111111110110
1111111110011000
1111111010101101
1111111011100111
1111111000001010
100110011
1111111010010111
1111111100001010
1001001000
1101110011
101110001
11001010
1010101000
111100001
111111011
1011010
1111111000111010
1111110111100100
1111111110110111
10000100
11101101
1111111110111111
1111111111100111
10011
1111111111100101
11110
101110
11000
1111111110101010
1111111101011001
1111111100110010
1111111011100111
1010010
111100100
1101000110
1011000010
1100011011
110110010
1111111001000011
1111111010001111
10110110
1001101010
100000100
11111000
1111111110001111
1111111101000111
111100
1111111111010001
1111111111001101
1101
100011
10100
1101
1111111111010000
1111111111101100
1000
1111111111110000
100011
1111111111101100
1000101
10000110
101011
1111111111101110
11011
1101110
1111010
11011011
1111111100100010
1111111100100000
1111111111000010
1111111111100110
1111111111010101
1111111111010101
1001010
1011011
11001
11011
1111111111010100
1111111111010000
0
