100101101
101010001
1111101010010011
1111001010001000
1100010010010
1111100010010011
11000001101
1111101100110110
1111111110001000
1111010110110
1111011111011101
10111101100
101101111000
1111110111100010
1111101111
11000110001
1110111011000
1110111011001011
1111111001010010
1110011111011010
1111001111010110
1111011001010001
1111010001101001
1110110100011110
1111010111100110
10101101
100100011000
1111100110110111
1111110011111001
101011111101
