1110010101110111
110000000011
1100011011
1111101000111111
1101110000100100
100101001101
11000011011
10111010000
1011000011011
10000010000
1111100110111101
101011011
1100100
100100001000
1111000001010110
1110000000100011
1110011011000101
1100000101001
1111110101100100
111110100000
1000010111011
111010000001
1010011101111
11000110011
1100010011
1111101101011000
1111101111101110
1011011100111
1110110101001001
1111111011111001
