1111010100111100
1111101001010110
1111001010011000
1110111111011111
100101011011
100101100101
1111101010101010
1111
1111110000000101
1000010010110
1111110011101011
1111001111001110
110101001101
10101110000
1111110100011101
1111011010011001
1111111001110000
1110111101101001
1111100010100001
1111100000100001
100111011000
100110011
1111010011101101
1111101000000111
1111111010100100
1111010011101100
1111101100100100
1000110110010
1111100010001101
101011010000
