1110111010111011
110110101111
1111011010100000
1010001000111
1110100010110011
1110011100101000
1111011000111101
1111100100111010
10011000000
1101101100101111
11010111110
1010011000000
100110010101
1111110010110001
110000100110
1111101000000010
1111100011101110
1001100001
10110011011
1011000000111
1001111010
1001111111000
1101011110
1001111110101
101111001000
101111101001
1110111010
1111100100110001
1110010110100001
1101111011010010
