1100000011
1110110101000110
1111110111001101
1111010011011000
1111110001110110
1111101010110011
101110101010
1111101110010010
1111111110100110
10110100101
1111100100010111
110101101
1111101001000110
1111011001110110
1111111100100001
1111011110000100
1111100001010000
1111101010010010
1111101000
1111001001100111
1111101
101000011
10011001110
1111110010101101
1111101111111010
1110101000
1111101100010101
1111011001001010
1110011111
11111101101
