1111010010000001
1111110100001010
1111010101000001
1111001011011111
11001100100
10000000000
1111100010000110
1111111110010110
1111111111001011
10111011101
1111101100011111
1111101010010001
101010000000
1111111111110100
1111110010111000
1111101011011000
1111110101110011
1111000101101111
1111011010011100
10100101
100010111110
10011111101
1111011000110000
1111101000011100
1111101011100110
1111011111110100
1111101011101100
110011100010
1111101011011111
1110010000
