1000111011011
110011
10001010000
11000100001
1111110010100001
110110
1110001100011011
1111110101100010
1111001011111110
101101111010
1100001100111
1110000000
100111111
100011100
110010110101
1111110110000010
101100001100
11111010000
101011011000
100011110001
1111101110111111
1111100000111110
1111001000110110
1111010000111001
1001010001101
1111110100001010
1111000110100001
1111101110000110
1111101111100001
1100110111
