1111000000111111
1111011010010101
1111101101011010
1111010101001011
100011011011
1111101011111100
1001111101001
100010001111
1001111011010
11110111000
1110111000110001
1111010111011111
1111101100110110
1111001011010100
1111101110010111
1111010111111101
1111000111111000
1111001011110000
101101010
1111101100010100
101011101
110010100000
101100110110
1111111111111011
1111001001010011
1111100100000011
10101000000
1111111011011110
111000111101
110000000011
