1111111111010101
1111110101010010
11101011
1111111111111110
1100000001
1111101100100010
1111111110001110
11101100
10100100110
1111101101
1111101010011100
1111011011010011
1111101101000001
1111010000100110
1111100011001100
1111101011100010
1111010111111101
11100000001
10011000101
1011001001
1111011010101001
10001000110
10001110100
11111111
1111110100011000
1111011110111001
1111111011
1111111011101100
101110100010
11001010100
