10110001011
110100010001
11101000111
101110000
1110111011000101
11111010010
1111001001111000
101110110111
1011000101011
101001011001
1111111110101000
1111011100010000
1111111110111011
1111100100101110
1111011001100111
1111010111011111
1111011100110111
1100101101000
101111001001
111000011010
10100000000
1111111110111011
1111111011000000
1111110110110011
1000011100
1110110000010110
1111111110010011
1111110001100100
1101111001
10110001110
