1111100010
1110100101011
111011101110
1001100000001
1101111110101011
1100000001110
1110001111011101
1111001100111110
1111101110101111
10010001101011
1111110110101101
10100100110
1110011101100000
1101011111001101
1110101111000
1111100011100011
1110101000010101
1101001101010
1111100010101100
1111001110000001
110111000
1101000010110
1111000111001111
1110110011000100
1111101100010101
1000001101
10010110110001
100111001
110011011000
1111101100000101
