1011000001100
1110011010
10010010111
1001111110010
100010101001
1111101000000010
100000000101
1110010101010000
1111000000100001
1011110101100
1101001010001
1110111001001111
100000110000
1110100001100010
11101111101
1111110110100010
101100000
1111001100100001
1011010111
1110000010101101
1110100101111111
1111011110000011
10011000101
11100101111
1111001100100101
1110110110001100
1101100011110
1110100111111010
1111100100000010
10001110101111
